#include <cstdint>
#include <cstddef>
#include "BufAttributes.h"
static const uint8_t g_Model[] ALIGNMENT_ATTRIBUTE =  {
	0x1c, 0x00, 0x00, 0x00, 0x54, 0x46, 0x4c, 0x33, 0x14, 0x00, 0x20, 0x00, 0x1c, 0x00, 0x18, 0x00, 0x14, 0x00, 0x10, 0x00, 
	0x0c, 0x00, 0x00, 0x00, 0x08, 0x00, 0x04, 0x00, 0x14, 0x00, 0x00, 0x00, 0x1c, 0x00, 0x00, 0x00, 0x8c, 0x00, 0x00, 0x00, 
	0xe4, 0x00, 0x00, 0x00, 0x64, 0x10, 0x00, 0x00, 0x74, 0x10, 0x00, 0x00, 0xf0, 0x28, 0x00, 0x00, 0x03, 0x00, 0x00, 0x00, 
	0x01, 0x00, 0x00, 0x00, 0x04, 0x00, 0x00, 0x00, 0x2e, 0xef, 0xff, 0xff, 0x0c, 0x00, 0x00, 0x00, 0x1c, 0x00, 0x00, 0x00, 
	0x3c, 0x00, 0x00, 0x00, 0x0f, 0x00, 0x00, 0x00, 0x73, 0x65, 0x72, 0x76, 0x69, 0x6e, 0x67, 0x5f, 0x64, 0x65, 0x66, 0x61, 
	0x75, 0x6c, 0x74, 0x00, 0x01, 0x00, 0x00, 0x00, 0x04, 0x00, 0x00, 0x00, 0x90, 0xff, 0xff, 0xff, 0x17, 0x00, 0x00, 0x00, 
	0x04, 0x00, 0x00, 0x00, 0x08, 0x00, 0x00, 0x00, 0x64, 0x65, 0x6e, 0x73, 0x65, 0x5f, 0x35, 0x33, 0x00, 0x00, 0x00, 0x00, 
	0x01, 0x00, 0x00, 0x00, 0x04, 0x00, 0x00, 0x00, 0x3a, 0xef, 0xff, 0xff, 0x04, 0x00, 0x00, 0x00, 0x0f, 0x00, 0x00, 0x00, 
	0x63, 0x6f, 0x6e, 0x76, 0x32, 0x64, 0x5f, 0x35, 0x36, 0x5f, 0x69, 0x6e, 0x70, 0x75, 0x74, 0x00, 0x02, 0x00, 0x00, 0x00, 
	0x34, 0x00, 0x00, 0x00, 0x04, 0x00, 0x00, 0x00, 0xdc, 0xff, 0xff, 0xff, 0x1a, 0x00, 0x00, 0x00, 0x04, 0x00, 0x00, 0x00, 
	0x13, 0x00, 0x00, 0x00, 0x43, 0x4f, 0x4e, 0x56, 0x45, 0x52, 0x53, 0x49, 0x4f, 0x4e, 0x5f, 0x4d, 0x45, 0x54, 0x41, 0x44, 
	0x41, 0x54, 0x41, 0x00, 0x08, 0x00, 0x0c, 0x00, 0x08, 0x00, 0x04, 0x00, 0x08, 0x00, 0x00, 0x00, 0x19, 0x00, 0x00, 0x00, 
	0x04, 0x00, 0x00, 0x00, 0x13, 0x00, 0x00, 0x00, 0x6d, 0x69, 0x6e, 0x5f, 0x72, 0x75, 0x6e, 0x74, 0x69, 0x6d, 0x65, 0x5f, 
	0x76, 0x65, 0x72, 0x73, 0x69, 0x6f, 0x6e, 0x00, 0x1b, 0x00, 0x00, 0x00, 0x7c, 0x0f, 0x00, 0x00, 0x74, 0x0f, 0x00, 0x00, 
	0x5c, 0x0f, 0x00, 0x00, 0xec, 0x0e, 0x00, 0x00, 0xbc, 0x0e, 0x00, 0x00, 0xac, 0x0c, 0x00, 0x00, 0x5c, 0x0c, 0x00, 0x00, 
	0x4c, 0x04, 0x00, 0x00, 0xbc, 0x03, 0x00, 0x00, 0xac, 0x01, 0x00, 0x00, 0x5c, 0x01, 0x00, 0x00, 0x0c, 0x01, 0x00, 0x00, 
	0xec, 0x00, 0x00, 0x00, 0xe4, 0x00, 0x00, 0x00, 0xdc, 0x00, 0x00, 0x00, 0xd4, 0x00, 0x00, 0x00, 0xcc, 0x00, 0x00, 0x00, 
	0xc4, 0x00, 0x00, 0x00, 0xbc, 0x00, 0x00, 0x00, 0xb4, 0x00, 0x00, 0x00, 0xac, 0x00, 0x00, 0x00, 0xa4, 0x00, 0x00, 0x00, 
	0x9c, 0x00, 0x00, 0x00, 0x94, 0x00, 0x00, 0x00, 0x8c, 0x00, 0x00, 0x00, 0x6c, 0x00, 0x00, 0x00, 0x04, 0x00, 0x00, 0x00, 
	0x22, 0xf0, 0xff, 0xff, 0x04, 0x00, 0x00, 0x00, 0x58, 0x00, 0x00, 0x00, 0x0c, 0x00, 0x00, 0x00, 0x08, 0x00, 0x0e, 0x00, 
	0x08, 0x00, 0x04, 0x00, 0x08, 0x00, 0x00, 0x00, 0x10, 0x00, 0x00, 0x00, 0x28, 0x00, 0x00, 0x00, 0x00, 0x00, 0x06, 0x00, 
	0x08, 0x00, 0x04, 0x00, 0x06, 0x00, 0x00, 0x00, 0x04, 0x00, 0x00, 0x00, 0x01, 0x00, 0x00, 0x00, 0xeb, 0x03, 0x00, 0x00, 
	0x00, 0x00, 0x0a, 0x00, 0x10, 0x00, 0x0c, 0x00, 0x08, 0x00, 0x04, 0x00, 0x0a, 0x00, 0x00, 0x00, 0x02, 0x00, 0x00, 0x00, 
	0x02, 0x00, 0x00, 0x00, 0x04, 0x00, 0x00, 0x00, 0x05, 0x00, 0x00, 0x00, 0x32, 0x2e, 0x39, 0x2e, 0x31, 0x00, 0x00, 0x00, 
	0x86, 0xf0, 0xff, 0xff, 0x04, 0x00, 0x00, 0x00, 0x10, 0x00, 0x00, 0x00, 0x31, 0x2e, 0x31, 0x34, 0x2e, 0x30, 0x00, 0x00, 
	0x00, 0x00, 0x00, 0x00, 0x00, 0x00, 0x00, 0x00, 0x1c, 0xd9, 0xff, 0xff, 0x20, 0xd9, 0xff, 0xff, 0x24, 0xd9, 0xff, 0xff, 
	0x28, 0xd9, 0xff, 0xff, 0x2c, 0xd9, 0xff, 0xff, 0x30, 0xd9, 0xff, 0xff, 0x34, 0xd9, 0xff, 0xff, 0x38, 0xd9, 0xff, 0xff, 
	0x3c, 0xd9, 0xff, 0xff, 0x40, 0xd9, 0xff, 0xff, 0x44, 0xd9, 0xff, 0xff, 0x48, 0xd9, 0xff, 0xff, 0xd2, 0xf0, 0xff, 0xff, 
	0x04, 0x00, 0x00, 0x00, 0x10, 0x00, 0x00, 0x00, 0x58, 0xfe, 0xff, 0xff, 0x56, 0xff, 0xff, 0xff, 0x5c, 0xfe, 0xff, 0xff, 
	0x67, 0x02, 0x00, 0x00, 0xee, 0xf0, 0xff, 0xff, 0x04, 0x00, 0x00, 0x00, 0x40, 0x00, 0x00, 0x00, 0xd3, 0x8f, 0xcc, 0xbd, 
	0x33, 0xf0, 0xb4, 0xb8, 0xed, 0x81, 0xd7, 0x37, 0xf5, 0x23, 0xd3, 0x2b, 0xd9, 0xae, 0x25, 0xc4, 0x34, 0x00, 0x43, 0xea, 
	0xa5, 0x1f, 0x02, 0xb8, 0x34, 0x9c, 0x03, 0xad, 0x3b, 0xbc, 0xb0, 0xa9, 0xcc, 0x3b, 0xe9, 0x44, 0xf6, 0xb4, 0x94, 0xe3, 
	0xf9, 0xd8, 0x3d, 0x0b, 0x37, 0x50, 0xe6, 0x5d, 0xe8, 0xe8, 0xcc, 0xe7, 0x58, 0x1c, 0x50, 0xdf, 0xdf, 0xfa, 0xed, 0xdb, 
	0x3a, 0xf1, 0xff, 0xff, 0x04, 0x00, 0x00, 0x00, 0x40, 0x00, 0x00, 0x00, 0x51, 0x04, 0x00, 0x00, 0xc2, 0x07, 0x00, 0x00, 
	0xcf, 0xfc, 0xff, 0xff, 0x5d, 0x09, 0x00, 0x00, 0xfa, 0xfb, 0xff, 0xff, 0xf7, 0x04, 0x00, 0x00, 0x1f, 0x00, 0x00, 0x00, 
	0xe3, 0x05, 0x00, 0x00, 0x65, 0x04, 0x00, 0x00, 0xaa, 0x09, 0x00, 0x00, 0x67, 0x0c, 0x00, 0x00, 0x4c, 0x03, 0x00, 0x00, 
	0x56, 0xff, 0xff, 0xff, 0x79, 0x08, 0x00, 0x00, 0x88, 0x05, 0x00, 0x00, 0x3e, 0x01, 0x00, 0x00, 0x86, 0xf1, 0xff, 0xff, 
	0x04, 0x00, 0x00, 0x00, 0x00, 0x02, 0x00, 0x00, 0x17, 0x11, 0x1f, 0xf4, 0x01, 0x22, 0xfd, 0x14, 0x1f, 0xad, 0x0c, 0xda, 
	0x00, 0x01, 0x0d, 0x04, 0xd8, 0xf8, 0x92, 0x0b, 0xbc, 0xf9, 0xd7, 0x08, 0xf1, 0x0c, 0x1d, 0xf8, 0x19, 0xd1, 0x8f, 0x16, 
	0xc2, 0xd9, 0xcf, 0x32, 0x18, 0xc1, 0x0f, 0xe0, 0x0f, 0x1a, 0xb7, 0xfc, 0xf8, 0xf5, 0xd2, 0xc1, 0x2d, 0x06, 0xf4, 0xef, 
	0x23, 0xcc, 0x0a, 0x14, 0x03, 0xce, 0xe5, 0x1f, 0xdb, 0xd1, 0x19, 0xeb, 0x11, 0xd6, 0xeb, 0x06, 0x09, 0x16, 0x1e, 0x26, 
	0xd5, 0x1a, 0xd2, 0x0a, 0xed, 0x38, 0x01, 0x04, 0xd3, 0x03, 0x36, 0xa1, 0x1c, 0x06, 0x1e, 0xd4, 0xd0, 0xd8, 0xf4, 0xe7, 
	0x13, 0x4e, 0x22, 0xfd, 0xaa, 0x02, 0x22, 0x0c, 0x9e, 0x10, 0xfd, 0x1c, 0x14, 0x1d, 0xf9, 0x0d, 0xcf, 0x12, 0xb5, 0x00, 
	0x0b, 0xb4, 0x06, 0x06, 0x1c, 0xfd, 0xd2, 0x0d, 0x0a, 0x12, 0x90, 0xdf, 0xc2, 0xfe, 0x0b, 0x91, 0xf2, 0x0d, 0xe2, 0xdd, 
	0x08, 0xf4, 0xeb, 0x0d, 0xd2, 0x29, 0xf8, 0x06, 0xf8, 0x1c, 0x13, 0x0a, 0x01, 0x01, 0x32, 0x05, 0x03, 0x0d, 0x22, 0xaa, 
	0xec, 0x0b, 0xfb, 0x09, 0x08, 0x42, 0x21, 0x04, 0xf9, 0x22, 0x17, 0xef, 0xff, 0x23, 0x27, 0x12, 0x1a, 0xe4, 0xeb, 0xe1, 
	0x16, 0x03, 0x01, 0xcc, 0x0e, 0x11, 0xf8, 0xf4, 0xd9, 0xcb, 0x24, 0xfe, 0xe6, 0x0f, 0x02, 0x14, 0xf6, 0xf3, 0xd4, 0x0e, 
	0x01, 0xd7, 0xe9, 0xf0, 0x10, 0x2d, 0x1a, 0x21, 0xe6, 0x18, 0xe0, 0x16, 0x0a, 0x12, 0xfe, 0x0a, 0xe2, 0xf2, 0x28, 0xdc, 
	0x00, 0xf0, 0x12, 0xe8, 0xc3, 0xda, 0xf7, 0xe8, 0x03, 0x4d, 0xfd, 0x03, 0x10, 0xfe, 0x0e, 0xe9, 0x08, 0x22, 0x29, 0x12, 
	0x19, 0xd6, 0x0d, 0xd1, 0x0e, 0x0f, 0x03, 0xbe, 0x13, 0xfc, 0xcc, 0x00, 0xd4, 0xb2, 0x12, 0x0c, 0x03, 0x0a, 0xf5, 0x12, 
	0xe3, 0xda, 0xe4, 0x0c, 0xa2, 0x0f, 0x18, 0x0d, 0xdb, 0x12, 0x13, 0x04, 0x26, 0x18, 0x0a, 0x07, 0xd0, 0x04, 0xa9, 0xfc, 
	0x19, 0xb2, 0x12, 0x24, 0x14, 0xfa, 0xf7, 0x25, 0x21, 0x14, 0xb0, 0x09, 0xc8, 0xe4, 0x1a, 0x95, 0x16, 0x93, 0xfb, 0x38, 
	0xf9, 0x07, 0x1e, 0x1a, 0xf9, 0x05, 0xd1, 0x3c, 0x03, 0x0e, 0xfb, 0x0e, 0xef, 0xf9, 0x14, 0xad, 0x32, 0x0e, 0xec, 0x14, 
	0xb6, 0xa5, 0xff, 0xe3, 0x0c, 0x05, 0x08, 0x0a, 0x10, 0x0e, 0x14, 0x15, 0x81, 0x1a, 0xd8, 0x09, 0x01, 0xf6, 0xef, 0x01, 
	0xc2, 0x15, 0xc9, 0x27, 0xfa, 0x91, 0xfd, 0x15, 0x13, 0x17, 0xbd, 0x13, 0x01, 0x0e, 0xec, 0xbc, 0x13, 0xe7, 0xdc, 0xfe, 
	0xe4, 0x26, 0x08, 0xd0, 0xfa, 0xab, 0xb4, 0x9b, 0xe0, 0x0c, 0x10, 0xef, 0x04, 0xc0, 0xff, 0x10, 0x19, 0xfd, 0x09, 0x27, 
	0xdd, 0x0e, 0xfd, 0xdc, 0x25, 0x1c, 0x10, 0x19, 0x0e, 0xf6, 0x0f, 0xfe, 0xfc, 0xed, 0xfa, 0xfe, 0xf8, 0x28, 0x10, 0x02, 
	0xeb, 0xfd, 0xdc, 0x13, 0x0d, 0x1b, 0xf7, 0x01, 0xe5, 0x0c, 0xf2, 0xe7, 0x06, 0x05, 0x1e, 0xee, 0x02, 0xe9, 0xfa, 0xeb, 
	0x07, 0x40, 0x0f, 0xfe, 0x00, 0x13, 0xf1, 0xf7, 0x12, 0xaf, 0xbf, 0x9f, 0xf0, 0x05, 0x1a, 0xda, 0x05, 0x9f, 0xf4, 0xff, 
	0x2a, 0x06, 0xf2, 0x28, 0x0c, 0x18, 0xe1, 0xdd, 0x24, 0x08, 0x05, 0x22, 0x15, 0xf1, 0x0a, 0x10, 0x1a, 0x0b, 0x1d, 0xe4, 
	0x04, 0x17, 0x1e, 0x1e, 0x0d, 0xdd, 0x12, 0xd5, 0x03, 0x1a, 0x12, 0xbf, 0x1d, 0x14, 0xe9, 0x00, 0xf7, 0xb1, 0x28, 0x12, 
	0xe4, 0x09, 0xf6, 0x01, 0xd1, 0x06, 0xec, 0xf8, 0xe4, 0x28, 0x17, 0xdc, 0x14, 0xcc, 0xda, 0xc1, 0x0a, 0x07, 0x27, 0xc6, 
	0x0c, 0xcb, 0x07, 0x01, 0x20, 0x0d, 0x0b, 0x23, 0xee, 0xfd, 0x10, 0xd4, 0x29, 0x32, 0x0b, 0x24, 0x03, 0xea, 0x0f, 0xfc, 
	0x92, 0xf3, 0xff, 0xff, 0x04, 0x00, 0x00, 0x00, 0x80, 0x00, 0x00, 0x00, 0x6a, 0xf8, 0xff, 0xff, 0xaa, 0xc4, 0xff, 0xff, 
	0x38, 0xfb, 0xff, 0xff, 0xf5, 0x08, 0x00, 0x00, 0x7d, 0xf0, 0xff, 0xff, 0x87, 0xd0, 0xff, 0xff, 0xec, 0xf7, 0xff, 0xff, 
	0x43, 0xcb, 0xff, 0xff, 0x77, 0xf0, 0xff, 0xff, 0x0f, 0xf9, 0xff, 0xff, 0xe7, 0xe2, 0xff, 0xff, 0x52, 0xfa, 0xff, 0xff, 
	0x07, 0xf3, 0xff, 0xff, 0x02, 0xea, 0xff, 0xff, 0x1b, 0xda, 0xff, 0xff, 0x33, 0xed, 0xff, 0xff, 0x52, 0x02, 0x00, 0x00, 
	0xf2, 0xe5, 0xff, 0xff, 0xb4, 0x01, 0x00, 0x00, 0x26, 0xd2, 0xff, 0xff, 0xe7, 0x0a, 0x00, 0x00, 0xfa, 0xdd, 0xff, 0xff, 
	0xfd, 0xea, 0xff, 0xff, 0x71, 0xca, 0xff, 0xff, 0x59, 0xc7, 0xff, 0xff, 0xd1, 0xbf, 0xff, 0xff, 0xb0, 0xeb, 0xff, 0xff, 
	0xae, 0xed, 0xff, 0xff, 0x77, 0xdf, 0xff, 0xff, 0xbe, 0xfc, 0xff, 0xff, 0xf8, 0x02, 0x00, 0x00, 0x71, 0xe6, 0xff, 0xff, 
	0x1e, 0xf4, 0xff, 0xff, 0x04, 0x00, 0x00, 0x00, 0x00, 0x08, 0x00, 0x00, 0xeb, 0x29, 0x7f, 0x13, 0xe2, 0x1b, 0x0d, 0xdc, 
	0xef, 0xec, 0xf9, 0x17, 0xed, 0x0c, 0x2b, 0x0b, 0xbf, 0x37, 0x32, 0x10, 0xf0, 0x0b, 0x0a, 0xe3, 0x0b, 0xc9, 0x0e, 0xf7, 
	0xe5, 0x12, 0x06, 0xe2, 0xb3, 0x43, 0x21, 0x14, 0x1b, 0x10, 0x13, 0x13, 0x11, 0xd2, 0x02, 0xde, 0xeb, 0x12, 0xf3, 0xde, 
	0xae, 0x12, 0x0c, 0xf3, 0x37, 0x0a, 0x14, 0x31, 0x1b, 0xf1, 0xc2, 0xdb, 0xdf, 0x0a, 0xf0, 0xd1, 0x34, 0xcb, 0x7f, 0x2a, 
	0x02, 0xff, 0x40, 0x0e, 0xfe, 0xd8, 0x2a, 0x4c, 0x63, 0xff, 0xfb, 0xc7, 0x49, 0xce, 0x33, 0x44, 0xfe, 0xf6, 0x25, 0xf2, 
	0x28, 0xfa, 0x19, 0x4d, 0x54, 0xe2, 0x18, 0xf2, 0x2a, 0xdc, 0x1e, 0x58, 0x08, 0xe0, 0x00, 0x04, 0x1c, 0x07, 0x0b, 0x51, 
	0x1b, 0xee, 0x27, 0xf1, 0x4a, 0xe0, 0xff, 0x2d, 0xed, 0xd4, 0x11, 0x24, 0x1a, 0x1f, 0xfc, 0x23, 0x02, 0xcf, 0x12, 0xdc, 
	0x77, 0x1b, 0x19, 0x52, 0x19, 0x33, 0x1f, 0x02, 0x18, 0xdd, 0x24, 0x17, 0xeb, 0xe6, 0xd1, 0x51, 0xfc, 0x1c, 0xe1, 0xd7, 
	0x0a, 0x28, 0x16, 0x03, 0x2f, 0xe6, 0x0b, 0x06, 0xd9, 0xd7, 0xb4, 0x0b, 0x7f, 0x32, 0x18, 0x3c, 0xed, 0x2d, 0x04, 0x05, 
	0xfb, 0xd7, 0xfa, 0x42, 0x26, 0xbd, 0xec, 0xe5, 0xc1, 0x05, 0x1b, 0x32, 0xd8, 0xe8, 0xd5, 0xac, 0x3b, 0xc1, 0x0f, 0x28, 
	0xf0, 0xc4, 0xd6, 0x1e, 0xed, 0xef, 0xee, 0xb0, 0x33, 0x6f, 0x25, 0xf1, 0xb7, 0xce, 0xd4, 0x04, 0x81, 0x58, 0x53, 0xb3, 
	0x04, 0x18, 0xa6, 0xb7, 0x25, 0x4f, 0x3b, 0xdb, 0xc0, 0x07, 0xd2, 0x3f, 0x8d, 0x12, 0xe0, 0x2c, 0x2f, 0x2e, 0xcd, 0xd2, 
	0x21, 0x44, 0x44, 0xc9, 0xb1, 0x39, 0xec, 0xf3, 0xf9, 0x37, 0x18, 0x38, 0x12, 0xbc, 0xb6, 0xc8, 0xec, 0x11, 0xef, 0xfc, 
	0x9e, 0x0f, 0xcf, 0x2d, 0xc7, 0x0d, 0xf9, 0x1b, 0x28, 0x00, 0xb3, 0xde, 0x7f, 0xf0, 0xe3, 0x29, 0xf7, 0x0e, 0xcc, 0x07, 
	0xf3, 0xe3, 0x0d, 0x02, 0xfe, 0xdc, 0xb4, 0xd3, 0x3a, 0xe7, 0xf0, 0x3d, 0xe0, 0x00, 0xf8, 0xec, 0xff, 0xf9, 0xfa, 0xfc, 
	0x0c, 0xe2, 0xf2, 0xe2, 0x41, 0xdc, 0xf9, 0xff, 0xf0, 0xf9, 0x29, 0xf8, 0x17, 0x25, 0xe0, 0x11, 0xfe, 0x3f, 0x0a, 0xea, 
	0x20, 0xef, 0x06, 0x0d, 0x18, 0x00, 0x2b, 0xeb, 0xf3, 0x43, 0xee, 0x12, 0x24, 0xff, 0xd3, 0x0f, 0x0d, 0x42, 0x14, 0x5d, 
	0x20, 0xf9, 0xca, 0xf6, 0xe4, 0xad, 0x70, 0x1c, 0x0c, 0x1d, 0x20, 0xfd, 0xda, 0x47, 0x07, 0x03, 0xfd, 0xd2, 0xfa, 0x1e, 
	0x23, 0xcc, 0x45, 0x19, 0x3c, 0x3b, 0x4d, 0x0a, 0xe6, 0x31, 0x09, 0xf4, 0xeb, 0xc1, 0x37, 0x4a, 0x0c, 0xfd, 0x42, 0xfa, 
	0x03, 0x42, 0x7f, 0xf8, 0xd2, 0x47, 0x06, 0xc5, 0xfd, 0xb8, 0xfa, 0x20, 0xf5, 0xf6, 0x00, 0x0e, 0xb0, 0xd8, 0xf9, 0x13, 
	0x0b, 0x1c, 0x08, 0xfe, 0x2c, 0x81, 0xc0, 0xfe, 0xf5, 0x19, 0xdf, 0xae, 0xc0, 0x2e, 0xdc, 0x14, 0x0f, 0x0b, 0x23, 0x1c, 
	0x0b, 0xc8, 0xa8, 0xff, 0xea, 0xdd, 0x0b, 0xcb, 0xcd, 0x3a, 0x0a, 0x0b, 0xf8, 0x3b, 0x29, 0x28, 0xf5, 0x00, 0xdc, 0x19, 
	0xfb, 0xd0, 0x3a, 0xbc, 0xc9, 0x3c, 0x35, 0x03, 0xdf, 0x21, 0x17, 0x15, 0xc0, 0x03, 0x27, 0x26, 0x09, 0xca, 0x63, 0xc8, 
	0x16, 0xf8, 0xcb, 0xf5, 0x05, 0x47, 0x15, 0x46, 0x0d, 0x0c, 0xc4, 0x10, 0xec, 0xbf, 0x61, 0xf4, 0x0a, 0x1c, 0xe6, 0x0b, 
	0xe1, 0x15, 0x32, 0x05, 0xeb, 0xe7, 0xed, 0x1b, 0x22, 0xd2, 0x78, 0xe7, 0x29, 0x39, 0x7f, 0xe8, 0xe2, 0x69, 0x20, 0x21, 
	0xf2, 0xc2, 0x41, 0x07, 0x5c, 0x1f, 0x17, 0x15, 0x11, 0x46, 0x61, 0x00, 0xbc, 0x25, 0x09, 0xdd, 0xbf, 0xba, 0x46, 0x12, 
	0xe8, 0x0c, 0x0b, 0x12, 0x30, 0x07, 0xf0, 0x46, 0x0d, 0x1a, 0x13, 0x18, 0x22, 0xde, 0x1b, 0xea, 0xe3, 0xd7, 0x0a, 0x42, 
	0x4c, 0x21, 0x28, 0x26, 0x04, 0x24, 0x20, 0x05, 0x08, 0xce, 0x08, 0x40, 0xfa, 0xe6, 0xf8, 0x2a, 0xd9, 0x0b, 0xcd, 0xdc, 
	0x2d, 0x12, 0x0a, 0xf8, 0x0c, 0xd5, 0xf2, 0xff, 0xc5, 0xfc, 0xd6, 0xd3, 0x16, 0x29, 0xf9, 0x7f, 0xde, 0x37, 0xf6, 0xe8, 
	0xde, 0xe0, 0xf4, 0x22, 0x1c, 0xeb, 0x04, 0x3d, 0x2d, 0xd2, 0x27, 0xec, 0x03, 0x15, 0x16, 0x04, 0xff, 0x17, 0x7f, 0x38, 
	0x20, 0x19, 0xde, 0xe5, 0x0b, 0xce, 0xfe, 0xd9, 0xee, 0xf3, 0x21, 0x05, 0xd7, 0x27, 0xf6, 0x0e, 0xd4, 0xc6, 0xf5, 0xd2, 
	0x29, 0xcd, 0xee, 0xf3, 0xf9, 0xf1, 0x30, 0x23, 0xd0, 0x2e, 0x13, 0xe8, 0xfe, 0xcb, 0x34, 0xef, 0x03, 0xc7, 0xf6, 0xc4, 
	0xee, 0xe6, 0x18, 0x13, 0xc8, 0x41, 0x46, 0xe7, 0xc4, 0xe2, 0x01, 0xfa, 0x03, 0xb6, 0xf7, 0x08, 0x48, 0x16, 0x26, 0x03, 
	0x27, 0xe2, 0x05, 0x2a, 0x36, 0x0a, 0xb8, 0xfa, 0x2b, 0xde, 0xef, 0x2e, 0x0b, 0xf6, 0x04, 0xd9, 0xe9, 0xe5, 0x0d, 0x49, 
	0x3b, 0x16, 0xde, 0x00, 0x47, 0xc5, 0x1b, 0x3d, 0x0b, 0xed, 0xf2, 0xd9, 0x4d, 0xe5, 0x3f, 0x5d, 0x34, 0x23, 0xed, 0x0e, 
	0x58, 0xbd, 0xbe, 0x7f, 0xd0, 0xf9, 0x01, 0xd6, 0x45, 0x08, 0x07, 0x27, 0x2c, 0xfc, 0xe5, 0x1c, 0xe3, 0xf1, 0x06, 0xcb, 
	0x0c, 0x39, 0xfb, 0x1a, 0x23, 0xec, 0x7f, 0x19, 0xcb, 0x4a, 0xde, 0x24, 0xd7, 0x16, 0x0f, 0xb2, 0xf8, 0x34, 0x0b, 0xf6, 
	0xf3, 0x08, 0xc7, 0xd8, 0xac, 0xe8, 0xeb, 0x13, 0xe7, 0xf3, 0xea, 0xc0, 0xd8, 0x04, 0x01, 0x07, 0xdc, 0x19, 0xd0, 0x07, 
	0xaf, 0x10, 0x2a, 0x03, 0xe1, 0xe7, 0xbe, 0xd4, 0xde, 0x2a, 0x2a, 0x1e, 0x06, 0x26, 0xbd, 0x0e, 0xb5, 0x04, 0x3a, 0x06, 
	0xec, 0xb1, 0xdb, 0x15, 0x49, 0xb7, 0xae, 0x21, 0x4b, 0xf8, 0xe5, 0xfc, 0x31, 0x5a, 0xe4, 0xee, 0xf2, 0x82, 0xd3, 0x10, 
	0xe9, 0x81, 0xa3, 0x07, 0x11, 0x06, 0xe7, 0xe4, 0x62, 0x5a, 0xf0, 0x50, 0x19, 0x00, 0xf5, 0x27, 0x25, 0x8b, 0xd3, 0xfb, 
	0x14, 0x10, 0xb4, 0x5c, 0x31, 0xfc, 0x27, 0x6e, 0x1c, 0x40, 0xe5, 0xb3, 0x76, 0xc2, 0xee, 0x11, 0xa5, 0x0f, 0xb6, 0xda, 
	0xc2, 0x2e, 0x11, 0x39, 0xec, 0xf8, 0xb0, 0xee, 0xc5, 0xfe, 0x0c, 0x0e, 0x0a, 0x17, 0xb9, 0x27, 0xc7, 0x9b, 0x32, 0x19, 
	0xf7, 0xd2, 0x94, 0x02, 0xc3, 0x13, 0x1d, 0xf9, 0xfc, 0x27, 0xba, 0x3a, 0xfb, 0x89, 0x43, 0x0d, 0xff, 0x26, 0x22, 0x12, 
	0xe8, 0x01, 0x2b, 0xe5, 0x08, 0xf9, 0x1a, 0x1e, 0x46, 0xd4, 0x2d, 0x1a, 0x0e, 0x3b, 0x7f, 0x13, 0xc9, 0x2c, 0x02, 0xc6, 
	0x0d, 0xe8, 0x55, 0x1a, 0x1e, 0x09, 0x0c, 0x3f, 0x1c, 0xd8, 0xe8, 0x41, 0x46, 0x12, 0x12, 0x68, 0x0f, 0x26, 0x81, 0x24, 
	0x10, 0xfa, 0x45, 0xe9, 0x11, 0x00, 0x0e, 0x07, 0x14, 0xcd, 0xe6, 0xea, 0xd4, 0xe5, 0xd1, 0x05, 0xea, 0x31, 0x1c, 0xd3, 
	0xf6, 0x0b, 0x45, 0x26, 0x23, 0xd3, 0x02, 0xd4, 0x60, 0xe3, 0x20, 0xe9, 0x0d, 0x54, 0x05, 0xe5, 0xf1, 0x20, 0x4d, 0x1b, 
	0x3c, 0x24, 0x0c, 0xf8, 0x34, 0xde, 0x00, 0xfe, 0x0b, 0x53, 0xd4, 0x0f, 0x16, 0x03, 0xe6, 0xe6, 0xd3, 0xfc, 0x20, 0xec, 
	0xeb, 0x41, 0x44, 0x1a, 0xc8, 0x21, 0x14, 0xf6, 0x03, 0xfd, 0x00, 0xc4, 0xd5, 0x1a, 0x1b, 0xeb, 0x0f, 0x44, 0x47, 0xf1, 
	0xd4, 0x12, 0x00, 0xf9, 0xee, 0xd4, 0x4e, 0x9e, 0xdd, 0x1e, 0x09, 0xe7, 0xf7, 0x29, 0x7f, 0xfc, 0x54, 0x13, 0xdf, 0xdb, 
	0xf2, 0x24, 0x34, 0xc8, 0xf6, 0x10, 0x07, 0x07, 0xf5, 0x2b, 0x5d, 0x2a, 0x25, 0x4a, 0xb6, 0xec, 0x5c, 0xa0, 0xdd, 0xe5, 
	0x24, 0x05, 0x3d, 0x01, 0xd5, 0x0c, 0x3f, 0x28, 0x10, 0xcb, 0x51, 0xec, 0x2e, 0x97, 0xa2, 0x2f, 0x1c, 0xea, 0x3d, 0x06, 
	0xe9, 0x0a, 0xd7, 0x2a, 0xba, 0x9e, 0xc9, 0x09, 0x5f, 0x90, 0xa9, 0xf6, 0x1e, 0x0d, 0xfc, 0x07, 0xe3, 0xf8, 0x0f, 0x1b, 
	0xba, 0x9e, 0xdc, 0xf0, 0x1c, 0x81, 0x92, 0x82, 0x6b, 0x00, 0x23, 0xfb, 0x18, 0x03, 0xd0, 0x23, 0xe1, 0x18, 0xf5, 0xbc, 
	0x16, 0x08, 0xd0, 0xda, 0x1f, 0xd7, 0x04, 0x31, 0x07, 0x11, 0xc3, 0xef, 0xff, 0xf8, 0xf7, 0xde, 0x11, 0xc2, 0xbf, 0xde, 
	0x7f, 0xf4, 0xff, 0x69, 0xfe, 0xff, 0xb4, 0xf0, 0x09, 0x08, 0xf3, 0xd7, 0x0e, 0x06, 0xe5, 0x0a, 0x34, 0xe9, 0xfd, 0x08, 
	0x20, 0xe6, 0xfb, 0x00, 0x16, 0x29, 0xda, 0xdf, 0x04, 0x2c, 0x13, 0xe7, 0x6c, 0x05, 0xf8, 0x2d, 0x41, 0xeb, 0x16, 0xec, 
	0xf4, 0x4d, 0xe5, 0xdd, 0xe7, 0xdd, 0x81, 0x27, 0xd9, 0xdd, 0x09, 0x1a, 0xe5, 0x2a, 0xd8, 0x3d, 0x05, 0x93, 0x1e, 0x1b, 
	0xca, 0xb3, 0x96, 0x19, 0xec, 0x01, 0x21, 0x0c, 0xf8, 0x41, 0xb9, 0x15, 0xeb, 0xb8, 0x22, 0x0f, 0x93, 0xde, 0x12, 0xd6, 
	0x0b, 0x03, 0x03, 0xd7, 0x1b, 0x0e, 0x0a, 0x08, 0x42, 0x03, 0xf4, 0xf9, 0x87, 0x11, 0x4e, 0xd2, 0xec, 0x15, 0xfa, 0xab, 
	0x10, 0x14, 0x49, 0xef, 0x3a, 0x14, 0xcb, 0x2e, 0x5f, 0xc4, 0x32, 0xe0, 0xf5, 0xee, 0x4f, 0xf0, 0xf3, 0xf4, 0x28, 0x7f, 
	0x56, 0x0e, 0x11, 0x1d, 0x4d, 0xb3, 0x03, 0x14, 0xf6, 0x02, 0x3d, 0xf6, 0x16, 0xf3, 0x1e, 0x2d, 0x33, 0xf0, 0x31, 0x0e, 
	0x02, 0xb4, 0xfb, 0x0a, 0x01, 0xf6, 0xf9, 0x1a, 0xef, 0x23, 0x22, 0x36, 0x06, 0xcc, 0xfc, 0xf4, 0x4b, 0xaa, 0x0f, 0xf8, 
	0xf6, 0x01, 0x05, 0x49, 0xf5, 0x11, 0xfc, 0x54, 0xee, 0xbf, 0x0e, 0xf5, 0xb8, 0xe5, 0xbc, 0x8e, 0x09, 0x1e, 0x52, 0x25, 
	0xbf, 0xf3, 0x2a, 0x40, 0x91, 0x10, 0x35, 0x1b, 0x0d, 0x20, 0xab, 0xb0, 0xd6, 0x1e, 0x2a, 0xe5, 0x9e, 0x0b, 0xfd, 0xea, 
	0x81, 0xf5, 0x17, 0x32, 0x22, 0x22, 0xf9, 0xcf, 0xec, 0x08, 0x4e, 0x27, 0x9e, 0x49, 0x23, 0xf7, 0xd4, 0x2f, 0xf2, 0xed, 
	0x51, 0xfc, 0xcb, 0xdc, 0xf5, 0x05, 0x17, 0xea, 0xa9, 0x18, 0xe4, 0xe8, 0xb0, 0x3a, 0xb8, 0xf4, 0x9f, 0xed, 0x1a, 0xd3, 
	0xed, 0x03, 0x38, 0xd8, 0x0f, 0x20, 0x5c, 0xb4, 0x26, 0x0f, 0xa8, 0x31, 0x88, 0x21, 0x52, 0xb0, 0xef, 0x1f, 0x1b, 0xe2, 
	0x01, 0x20, 0x78, 0xe7, 0x19, 0x48, 0xc9, 0x0c, 0xfb, 0x2a, 0x0f, 0xd3, 0xfa, 0xfa, 0x29, 0xf7, 0xf2, 0x3d, 0x65, 0xe9, 
	0x62, 0x67, 0xe4, 0x02, 0x2b, 0x0e, 0x93, 0xfd, 0x06, 0x0a, 0x2a, 0x41, 0x09, 0x7f, 0x0a, 0x23, 0x3a, 0x0e, 0xf9, 0x1d, 
	0x13, 0xf3, 0xda, 0xe6, 0x36, 0xf7, 0xeb, 0x7f, 0x19, 0x08, 0xec, 0x19, 0xfa, 0xcf, 0x12, 0x05, 0xe9, 0xe8, 0xe4, 0xd2, 
	0x01, 0x9e, 0xef, 0xe5, 0x98, 0xef, 0x05, 0x30, 0x0a, 0xec, 0x14, 0xc1, 0xe8, 0x19, 0x3a, 0xc5, 0x00, 0xd3, 0x1a, 0x05, 
	0x1c, 0x05, 0x48, 0x02, 0x24, 0x06, 0xfb, 0xa9, 0xef, 0x06, 0x3c, 0xf7, 0xef, 0x27, 0x2a, 0x25, 0x0b, 0x09, 0x14, 0xfe, 
	0xdc, 0x0c, 0xef, 0xd4, 0x1f, 0xfc, 0xad, 0x9d, 0x5c, 0x15, 0x74, 0x19, 0x07, 0x1e, 0xb9, 0x2b, 0x3a, 0x06, 0x74, 0x44, 
	0x00, 0xfa, 0xd4, 0xa2, 0x37, 0x04, 0x01, 0x0d, 0x11, 0xd4, 0xfa, 0x24, 0xe9, 0x05, 0x2e, 0x20, 0x07, 0xc5, 0x09, 0x20, 
	0x21, 0x6a, 0x19, 0xf9, 0xd3, 0x08, 0x2a, 0x01, 0x29, 0xc9, 0x23, 0x7f, 0x48, 0xe5, 0x07, 0x1e, 0x39, 0x27, 0xa2, 0xda, 
	0x92, 0xfa, 0xf1, 0xe8, 0x53, 0xaa, 0x29, 0x1b, 0x54, 0xc0, 0x4c, 0xf4, 0xfd, 0xe7, 0x41, 0xe2, 0x0d, 0x2c, 0x41, 0x63, 
	0x7f, 0x15, 0x2b, 0xe9, 0x03, 0xa5, 0x2b, 0xea, 0xf2, 0x02, 0x1e, 0xfa, 0x10, 0x1f, 0x20, 0x7c, 0x3f, 0xe4, 0x14, 0x07, 
	0x33, 0x97, 0xf9, 0x31, 0xf8, 0x06, 0x2d, 0x1d, 0xe9, 0xfb, 0x13, 0x5b, 0x08, 0xb6, 0x19, 0x09, 0x43, 0x84, 0xd6, 0xd1, 
	0x15, 0x0b, 0x11, 0x33, 0x00, 0x21, 0xf3, 0x1a, 0x15, 0xac, 0x1a, 0xde, 0x45, 0xd8, 0x6e, 0x04, 0x22, 0xec, 0x4a, 0x03, 
	0xf4, 0xe4, 0x46, 0x6b, 0x71, 0xff, 0xdf, 0xe9, 0x63, 0xd4, 0x2a, 0x60, 0xf6, 0x03, 0x2b, 0xe5, 0x15, 0x07, 0x22, 0x7f, 
	0x41, 0xe2, 0x11, 0xfd, 0x3e, 0xde, 0x09, 0x16, 0xfc, 0x0d, 0x11, 0xf8, 0x09, 0x1f, 0x24, 0x45, 0x34, 0xd2, 0x28, 0x0a, 
	0x44, 0xde, 0xfd, 0x7b, 0xe8, 0xeb, 0x1c, 0x22, 0xfb, 0x11, 0xf5, 0x41, 0x1e, 0xa9, 0x0b, 0xd0, 0xbf, 0xf3, 0x40, 0xf0, 
	0x66, 0xfb, 0x13, 0x39, 0xf5, 0xf2, 0x60, 0xdc, 0xcb, 0x60, 0xb5, 0xc5, 0xcc, 0xdc, 0x2d, 0x20, 0x32, 0xfa, 0xf8, 0xf6, 
	0xf9, 0xf1, 0x1a, 0xed, 0x1d, 0x16, 0xe0, 0xd5, 0xfd, 0xdb, 0x1d, 0x0f, 0x05, 0xee, 0x1e, 0xdf, 0xf0, 0x11, 0x0f, 0xfb, 
	0xeb, 0x39, 0xf4, 0xe3, 0x39, 0xef, 0xde, 0x6b, 0x20, 0x0e, 0x0b, 0xda, 0x08, 0x1f, 0xd9, 0x18, 0x1e, 0x7f, 0x35, 0x36, 
	0x3f, 0xc0, 0xd6, 0x60, 0x0d, 0xe0, 0x21, 0x15, 0xfd, 0x12, 0xff, 0x29, 0x2c, 0xc2, 0x03, 0xa7, 0x46, 0xbd, 0xca, 0x55, 
	0x3d, 0xca, 0x0d, 0x05, 0xf3, 0x0f, 0x16, 0x18, 0xeb, 0xdc, 0xef, 0xea, 0x25, 0x9e, 0xc9, 0x40, 0x12, 0xeb, 0x23, 0x10, 
	0x10, 0x19, 0x42, 0x0d, 0xc6, 0xee, 0xe8, 0xc9, 0x0d, 0xab, 0xdf, 0xe1, 0x61, 0xcd, 0x39, 0xda, 0x09, 0x1c, 0x19, 0x22, 
	0xd4, 0x0d, 0xe6, 0x81, 0xc4, 0xfa, 0x7f, 0xfa, 0xe6, 0x13, 0x28, 0xf4, 0xe6, 0x10, 0x71, 0xf9, 0xbe, 0x69, 0xd8, 0xfe, 
	0xd7, 0x03, 0x7d, 0xea, 0xfe, 0xfb, 0x02, 0xf9, 0xdc, 0xfb, 0x4a, 0x28, 0x09, 0x54, 0xe5, 0xf5, 0xfc, 0x04, 0xff, 0x14, 
	0x1e, 0xfa, 0x20, 0xfc, 0xe3, 0x1f, 0x09, 0x01, 0x06, 0x2d, 0xf4, 0xfa, 0x31, 0xe7, 0xfb, 0x1f, 0x0f, 0xe9, 0x24, 0x26, 
	0xd6, 0x41, 0xcd, 0x2c, 0xf9, 0x3f, 0x03, 0x0a, 0xc2, 0xe1, 0xd8, 0x06, 0xf6, 0x86, 0x11, 0x06, 0xdd, 0x39, 0xc6, 0x07, 
	0xf0, 0xba, 0x42, 0xb7, 0x81, 0xf1, 0xe7, 0xfc, 0x01, 0xc4, 0x15, 0xfc, 0xf8, 0xf3, 0xe7, 0xf6, 0x31, 0xda, 0x13, 0xcf, 
	0xb1, 0x1b, 0x1c, 0x10, 0x0b, 0xd0, 0xf9, 0xe2, 0x0c, 0x01, 0x37, 0x16, 0x47, 0x07, 0xef, 0xf1, 0xe9, 0xfd, 0x1c, 0x1d, 
	0xee, 0x00, 0x07, 0xdd, 0xdc, 0x15, 0x06, 0x0a, 0x44, 0x10, 0xe8, 0x07, 0x07, 0xc7, 0xc2, 0x12, 0xf3, 0x0a, 0x3a, 0x40, 
	0xe4, 0x32, 0x13, 0x19, 0x03, 0x81, 0x13, 0xee, 0x09, 0xa8, 0x88, 0xf1, 0x04, 0xe1, 0x3a, 0x13, 0xe2, 0x65, 0xde, 0xea, 
	0xca, 0xb5, 0x1e, 0xfe, 0xd1, 0xe6, 0xf6, 0xa6, 0x0e, 0xf5, 0xef, 0xfa, 0xee, 0x6a, 0x1c, 0xb9, 0x1d, 0xf6, 0x23, 0xdc, 
	0xa8, 0xfd, 0x05, 0x8f, 0xe5, 0xdf, 0x0c, 0xbe, 0xdf, 0x4e, 0x3f, 0xb8, 0xd8, 0x4a, 0xd2, 0xf9, 0x27, 0x3f, 0x5c, 0xf7, 
	0xf3, 0x00, 0x2b, 0x0c, 0xdc, 0x43, 0xe9, 0xf7, 0xef, 0x12, 0x4d, 0x06, 0xc6, 0x2e, 0x3a, 0x1d, 0x21, 0xed, 0x0f, 0x25, 
	0x36, 0xc8, 0x17, 0xd4, 0xe2, 0x62, 0xd6, 0xbf, 0x8a, 0x42, 0x7f, 0xf7, 0x70, 0xff, 0x16, 0x3e, 0x1a, 0xb8, 0x1a, 0xb8, 
	0x09, 0x3b, 0xcb, 0xa6, 0xc1, 0xdc, 0x6f, 0x2d, 0x5c, 0xd2, 0xff, 0x1b, 0x39, 0xed, 0xdd, 0xda, 0x1d, 0x4f, 0xdd, 0xa5, 
	0x2a, 0xfc, 0xff, 0xff, 0x04, 0x00, 0x00, 0x00, 0x40, 0x00, 0x00, 0x00, 0xb1, 0x0f, 0x00, 0x00, 0x0d, 0x02, 0x00, 0x00, 
	0x36, 0x13, 0x00, 0x00, 0x0f, 0x17, 0x00, 0x00, 0x88, 0xf0, 0xff, 0xff, 0x47, 0xdf, 0xff, 0xff, 0xc3, 0xf1, 0xff, 0xff, 
	0x06, 0xf8, 0xff, 0xff, 0x34, 0xd0, 0xff, 0xff, 0xc1, 0xf9, 0xff, 0xff, 0x9d, 0x10, 0x00, 0x00, 0xd9, 0x09, 0x00, 0x00, 
	0x96, 0x1a, 0x00, 0x00, 0xfe, 0x02, 0x00, 0x00, 0x53, 0x22, 0x00, 0x00, 0x14, 0x02, 0x00, 0x00, 0x76, 0xfc, 0xff, 0xff, 
	0x04, 0x00, 0x00, 0x00, 0x00, 0x02, 0x00, 0x00, 0xbe, 0xda, 0xad, 0x76, 0xef, 0xfb, 0x22, 0x99, 0x9a, 0xa1, 0xd2, 0xd0, 
	0x2f, 0xd6, 0xc9, 0x9b, 0x89, 0xa4, 0x14, 0xcf, 0xfe, 0xcc, 0xda, 0xd5, 0xa9, 0x9b, 0x49, 0x4b, 0x7f, 0xd0, 0xea, 0x35, 
	0x12, 0xd8, 0xda, 0xec, 0x00, 0xf9, 0xdc, 0xe2, 0xee, 0xd7, 0xea, 0xfa, 0xf8, 0xf5, 0xe6, 0xe6, 0xf3, 0x02, 0xf7, 0xfd, 
	0xf9, 0x06, 0xe6, 0xec, 0xef, 0x00, 0xfe, 0x08, 0xf6, 0x2f, 0x7f, 0x0b, 0xdd, 0xec, 0xdf, 0x09, 0xd7, 0xf4, 0x36, 0xa1, 
	0xde, 0xef, 0xef, 0xe5, 0xd9, 0xe9, 0x0c, 0x81, 0xd5, 0xe4, 0xf8, 0xd9, 0xe4, 0xee, 0xe2, 0xa0, 0xe2, 0xd7, 0x12, 0xde, 
	0xe8, 0xfd, 0x58, 0xb3, 0xb6, 0x0c, 0xe8, 0xa5, 0xf1, 0x02, 0xb4, 0x87, 0xd2, 0xdf, 0xd2, 0x88, 0xea, 0xc7, 0xa5, 0x81, 
	0xc1, 0xfd, 0xe9, 0x99, 0xf1, 0xe6, 0xca, 0xad, 0xee, 0xf4, 0xf6, 0xd0, 0x7c, 0xde, 0xaf, 0xda, 0x20, 0x2a, 0x7f, 0x01, 
	0xf0, 0xed, 0xf5, 0x7e, 0x21, 0xf2, 0x12, 0x04, 0xdd, 0xe3, 0xf8, 0xfe, 0xee, 0x3a, 0x6e, 0x24, 0xe7, 0x04, 0x09, 0x08, 
	0xf7, 0xed, 0x01, 0x05, 0xda, 0xfe, 0x10, 0x23, 0x7f, 0x55, 0x7e, 0x1e, 0x03, 0x07, 0x0a, 0x1b, 0x64, 0x51, 0xd0, 0x42, 
	0x10, 0x39, 0xd3, 0xdf, 0x24, 0x1b, 0xbc, 0xff, 0x28, 0xf5, 0xd0, 0xc0, 0x08, 0x22, 0xa0, 0xbf, 0x46, 0x1a, 0xa1, 0x81, 
	0x7f, 0xbe, 0xfd, 0x3d, 0x0a, 0x4c, 0xce, 0xf0, 0x40, 0xe7, 0xfb, 0x04, 0x11, 0x06, 0xe3, 0xfd, 0x49, 0xdf, 0xf6, 0x12, 
	0x1c, 0x29, 0xf3, 0xfb, 0x28, 0x15, 0x0d, 0xe8, 0xde, 0xe4, 0x33, 0xd7, 0xfc, 0x7f, 0x4d, 0x26, 0x02, 0xfd, 0xf9, 0x53, 
	0xdf, 0xf6, 0xe2, 0xf2, 0x27, 0xf2, 0xdc, 0x1f, 0x23, 0xca, 0xd6, 0x04, 0xf9, 0xfa, 0xe0, 0x72, 0x1c, 0xef, 0xed, 0x09, 
	0x2a, 0xf5, 0xcc, 0x33, 0x65, 0x30, 0x0b, 0x27, 0x1d, 0x4a, 0xe2, 0xfa, 0x43, 0x3c, 0xf4, 0xff, 0xf7, 0x21, 0x35, 0x0e, 
	0x0a, 0x20, 0x69, 0x0b, 0xdc, 0x22, 0x67, 0x0d, 0x7f, 0x66, 0xf8, 0x35, 0xe5, 0xff, 0x19, 0x00, 0x00, 0xf5, 0xf7, 0xf9, 
	0x2f, 0xcd, 0xce, 0xf3, 0x20, 0xf4, 0x14, 0xf8, 0xf9, 0xf8, 0xcf, 0x16, 0x31, 0x08, 0x0c, 0xf0, 0x7f, 0x1e, 0xca, 0x0a, 
	0x1f, 0x0d, 0x2a, 0xe1, 0xf9, 0xe2, 0xcc, 0x04, 0xf8, 0x32, 0xa1, 0x1e, 0xb2, 0x34, 0x28, 0xc2, 0xd7, 0x38, 0x98, 0x12, 
	0x90, 0x3d, 0x57, 0x92, 0xc8, 0x05, 0xa4, 0x06, 0x81, 0x2b, 0xed, 0x96, 0xdc, 0x11, 0xb5, 0xee, 0xc6, 0x09, 0x03, 0x81, 
	0x34, 0x03, 0x81, 0x25, 0xf6, 0x14, 0xf8, 0xfb, 0x0d, 0xe3, 0x83, 0xfc, 0xf3, 0x25, 0xdd, 0xb8, 0xfe, 0xeb, 0xac, 0x16, 
	0x0a, 0xf8, 0xd2, 0xe7, 0x0f, 0xfd, 0xc9, 0x10, 0x15, 0xe8, 0xb2, 0xe7, 0x0a, 0xf9, 0x95, 0xfc, 0xdc, 0x08, 0x12, 0xd3, 
	0xf4, 0x16, 0x8e, 0x14, 0xe6, 0xde, 0xe1, 0x9e, 0x3e, 0xbf, 0x81, 0xc3, 0xf8, 0xe0, 0xbf, 0xbb, 0xf4, 0xce, 0xae, 0xbd, 
	0xff, 0xe6, 0x9b, 0xd4, 0x09, 0x1d, 0xd7, 0xde, 0xb6, 0xfe, 0xdc, 0xd9, 0xea, 0x35, 0xdc, 0xe3, 0xac, 0x04, 0x7f, 0xfa, 
	0xf9, 0xf4, 0xea, 0xd9, 0xb4, 0xfb, 0x39, 0x01, 0xfa, 0x0c, 0x00, 0xf0, 0xd0, 0xff, 0x12, 0x38, 0xf4, 0xa8, 0x2b, 0xff, 
	0x39, 0xe4, 0x92, 0x52, 0xdc, 0x83, 0xf7, 0x26, 0xe2, 0xf0, 0x81, 0x5e, 0xde, 0xa3, 0xed, 0x16, 0x13, 0xef, 0xa4, 0x04, 
	0xc3, 0xd5, 0xd4, 0x41, 0xdb, 0x00, 0xd0, 0xc1, 0x0a, 0x03, 0xd9, 0x9d, 0x7f, 0x34, 0xd4, 0xbe, 0x05, 0x05, 0xa2, 0xc0, 
	0x03, 0x15, 0xdd, 0xb7, 0x22, 0x28, 0xb3, 0xd7, 0x1b, 0xf8, 0xeb, 0xce, 0x02, 0xd2, 0xc1, 0x1c, 0xe2, 0xf4, 0x26, 0xec, 
	0x82, 0xfe, 0xff, 0xff, 0x04, 0x00, 0x00, 0x00, 0x20, 0x00, 0x00, 0x00, 0x17, 0xf7, 0xff, 0xff, 0x0a, 0xee, 0xff, 0xff, 
	0x57, 0xa7, 0xff, 0xff, 0x22, 0xf1, 0xff, 0xff, 0xf6, 0xf2, 0xff, 0xff, 0x73, 0xfb, 0xff, 0xff, 0x29, 0xce, 0xff, 0xff, 
	0x0f, 0xb5, 0xff, 0xff, 0xae, 0xfe, 0xff, 0xff, 0x04, 0x00, 0x00, 0x00, 0x60, 0x00, 0x00, 0x00, 0x18, 0xf0, 0x97, 0x81, 
	0x54, 0x08, 0x76, 0xc0, 0xba, 0xc7, 0x23, 0xcf, 0xf0, 0xf3, 0x59, 0x81, 0x4c, 0x4b, 0x2c, 0xa8, 0xcf, 0x48, 0x28, 0xe1, 
	0x32, 0x42, 0x7f, 0xfb, 0xe9, 0x44, 0x3f, 0xe9, 0x40, 0x1e, 0x17, 0x56, 0x9d, 0x95, 0xda, 0xcc, 0xd4, 0xdd, 0xa2, 0x81, 
	0x3d, 0xd5, 0xd0, 0x59, 0x09, 0xa6, 0x43, 0xd4, 0x50, 0xcb, 0x7f, 0xfd, 0x11, 0x77, 0xa4, 0x31, 0x7f, 0x09, 0xb2, 0xd9, 
	0xee, 0x2d, 0x5a, 0xd6, 0xd6, 0x3e, 0x47, 0xfa, 0xde, 0x1e, 0x1e, 0x0e, 0x19, 0xb8, 0xdb, 0x7b, 0x70, 0x9b, 0xb8, 0x7f, 
	0xca, 0x49, 0xa5, 0x1b, 0x27, 0xa8, 0x81, 0x41, 0xcf, 0xb1, 0x67, 0x53, 0x1a, 0xff, 0xff, 0xff, 0x04, 0x00, 0x00, 0x00, 
	0x08, 0x00, 0x00, 0x00, 0x01, 0x00, 0x00, 0x00, 0x02, 0x00, 0x00, 0x00, 0xa8, 0xe7, 0xff, 0xff, 0xac, 0xe7, 0xff, 0xff, 
	0x0f, 0x00, 0x00, 0x00, 0x4d, 0x4c, 0x49, 0x52, 0x20, 0x43, 0x6f, 0x6e, 0x76, 0x65, 0x72, 0x74, 0x65, 0x64, 0x2e, 0x00, 
	0x01, 0x00, 0x00, 0x00, 0x14, 0x00, 0x00, 0x00, 0x00, 0x00, 0x0e, 0x00, 0x18, 0x00, 0x14, 0x00, 0x10, 0x00, 0x0c, 0x00, 
	0x08, 0x00, 0x04, 0x00, 0x0e, 0x00, 0x00, 0x00, 0x14, 0x00, 0x00, 0x00, 0x1c, 0x00, 0x00, 0x00, 0x30, 0x03, 0x00, 0x00, 
	0x34, 0x03, 0x00, 0x00, 0x38, 0x03, 0x00, 0x00, 0x04, 0x00, 0x00, 0x00, 0x6d, 0x61, 0x69, 0x6e, 0x00, 0x00, 0x00, 0x00, 
	0x0c, 0x00, 0x00, 0x00, 0xf8, 0x02, 0x00, 0x00, 0x9c, 0x02, 0x00, 0x00, 0x38, 0x02, 0x00, 0x00, 0xf4, 0x01, 0x00, 0x00, 
	0xa4, 0x01, 0x00, 0x00, 0x60, 0x01, 0x00, 0x00, 0x20, 0x01, 0x00, 0x00, 0xec, 0x00, 0x00, 0x00, 0xa8, 0x00, 0x00, 0x00, 
	0x70, 0x00, 0x00, 0x00, 0x34, 0x00, 0x00, 0x00, 0x10, 0x00, 0x00, 0x00, 0x00, 0x00, 0x0a, 0x00, 0x10, 0x00, 0x0c, 0x00, 
	0x08, 0x00, 0x04, 0x00, 0x0a, 0x00, 0x00, 0x00, 0x0c, 0x00, 0x00, 0x00, 0x10, 0x00, 0x00, 0x00, 0x06, 0x00, 0x00, 0x00, 
	0x01, 0x00, 0x00, 0x00, 0x17, 0x00, 0x00, 0x00, 0x01, 0x00, 0x00, 0x00, 0x16, 0x00, 0x00, 0x00, 0xca, 0xfd, 0xff, 0xff, 
	0x1c, 0x00, 0x00, 0x00, 0x00, 0x00, 0x00, 0x09, 0x1c, 0x00, 0x00, 0x00, 0x20, 0x00, 0x00, 0x00, 0x05, 0x00, 0x00, 0x00, 
	0x00, 0x00, 0x06, 0x00, 0x08, 0x00, 0x04, 0x00, 0x06, 0x00, 0x00, 0x00, 0x00, 0x00, 0x80, 0x3f, 0x01, 0x00, 0x00, 0x00, 
	0x16, 0x00, 0x00, 0x00, 0x01, 0x00, 0x00, 0x00, 0x15, 0x00, 0x00, 0x00, 0x02, 0xfe, 0xff, 0xff, 0x14, 0x00, 0x00, 0x00, 
	0x00, 0x00, 0x00, 0x08, 0x10, 0x00, 0x00, 0x00, 0x14, 0x00, 0x00, 0x00, 0x04, 0x00, 0x00, 0x00, 0xb0, 0xe8, 0xff, 0xff, 
	0x01, 0x00, 0x00, 0x00, 0x15, 0x00, 0x00, 0x00, 0x03, 0x00, 0x00, 0x00, 0x14, 0x00, 0x00, 0x00, 0x0a, 0x00, 0x00, 0x00, 
	0x0b, 0x00, 0x00, 0x00, 0x36, 0xfe, 0xff, 0xff, 0x1c, 0x00, 0x00, 0x00, 0x00, 0x00, 0x00, 0x08, 0x1c, 0x00, 0x00, 0x00, 
	0x20, 0x00, 0x00, 0x00, 0x04, 0x00, 0x00, 0x00, 0x00, 0x00, 0x06, 0x00, 0x08, 0x00, 0x07, 0x00, 0x06, 0x00, 0x00, 0x00, 
	0x00, 0x00, 0x00, 0x01, 0x01, 0x00, 0x00, 0x00, 0x14, 0x00, 0x00, 0x00, 0x03, 0x00, 0x00, 0x00, 0x13, 0x00, 0x00, 0x00, 
	0x08, 0x00, 0x00, 0x00, 0x09, 0x00, 0x00, 0x00, 0x76, 0xfe, 0xff, 0xff, 0x14, 0x00, 0x00, 0x00, 0x00, 0x00, 0x00, 0x1b, 
	0x10, 0x00, 0x00, 0x00, 0x14, 0x00, 0x00, 0x00, 0x03, 0x00, 0x00, 0x00, 0x24, 0xe9, 0xff, 0xff, 0x01, 0x00, 0x00, 0x00, 
	0x13, 0x00, 0x00, 0x00, 0x02, 0x00, 0x00, 0x00, 0x12, 0x00, 0x00, 0x00, 0x01, 0x00, 0x00, 0x00, 0xa6, 0xfe, 0xff, 0xff, 
	0x14, 0x00, 0x00, 0x00, 0x00, 0x00, 0x00, 0x05, 0x20, 0x00, 0x00, 0x00, 0x24, 0x00, 0x00, 0x00, 0x02, 0x00, 0x00, 0x00, 
	0x82, 0xff, 0xff, 0xff, 0x03, 0x00, 0x00, 0x00, 0x01, 0x00, 0x00, 0x00, 0x03, 0x00, 0x00, 0x00, 0x01, 0x00, 0x00, 0x00, 
	0x01, 0x00, 0x00, 0x00, 0x12, 0x00, 0x00, 0x00, 0x01, 0x00, 0x00, 0x00, 0x11, 0x00, 0x00, 0x00, 0xe2, 0xfe, 0xff, 0xff, 
	0x14, 0x00, 0x00, 0x00, 0x00, 0x00, 0x00, 0x01, 0x1c, 0x00, 0x00, 0x00, 0x20, 0x00, 0x00, 0x00, 0x01, 0x00, 0x00, 0x00, 
	0xd4, 0xfe, 0xff, 0xff, 0x00, 0x00, 0x00, 0x01, 0x01, 0x00, 0x00, 0x00, 0x01, 0x00, 0x00, 0x00, 0x01, 0x00, 0x00, 0x00, 
	0x11, 0x00, 0x00, 0x00, 0x03, 0x00, 0x00, 0x00, 0x10, 0x00, 0x00, 0x00, 0x06, 0x00, 0x00, 0x00, 0x07, 0x00, 0x00, 0x00, 
	0x22, 0xff, 0xff, 0xff, 0x24, 0x00, 0x00, 0x00, 0x00, 0x00, 0x00, 0x05, 0x30, 0x00, 0x00, 0x00, 0x34, 0x00, 0x00, 0x00, 
	0x02, 0x00, 0x00, 0x00, 0x00, 0x00, 0x0e, 0x00, 0x14, 0x00, 0x00, 0x00, 0x10, 0x00, 0x0c, 0x00, 0x08, 0x00, 0x04, 0x00, 
	0x0e, 0x00, 0x00, 0x00, 0x03, 0x00, 0x00, 0x00, 0x01, 0x00, 0x00, 0x00, 0x03, 0x00, 0x00, 0x00, 0x01, 0x00, 0x00, 0x00, 
	0x01, 0x00, 0x00, 0x00, 0x10, 0x00, 0x00, 0x00, 0x01, 0x00, 0x00, 0x00, 0x0f, 0x00, 0x00, 0x00, 0x6e, 0xff, 0xff, 0xff, 
	0x14, 0x00, 0x00, 0x00, 0x00, 0x00, 0x00, 0x01, 0x1c, 0x00, 0x00, 0x00, 0x20, 0x00, 0x00, 0x00, 0x01, 0x00, 0x00, 0x00, 
	0x60, 0xff, 0xff, 0xff, 0x00, 0x00, 0x00, 0x01, 0x01, 0x00, 0x00, 0x00, 0x01, 0x00, 0x00, 0x00, 0x01, 0x00, 0x00, 0x00, 
	0x0f, 0x00, 0x00, 0x00, 0x03, 0x00, 0x00, 0x00, 0x0e, 0x00, 0x00, 0x00, 0x04, 0x00, 0x00, 0x00, 0x05, 0x00, 0x00, 0x00, 
	0xae, 0xff, 0xff, 0xff, 0x24, 0x00, 0x00, 0x00, 0x00, 0x00, 0x00, 0x05, 0x34, 0x00, 0x00, 0x00, 0x38, 0x00, 0x00, 0x00, 
	0x02, 0x00, 0x00, 0x00, 0x00, 0x00, 0x0e, 0x00, 0x18, 0x00, 0x17, 0x00, 0x10, 0x00, 0x0c, 0x00, 0x08, 0x00, 0x04, 0x00, 
	0x0e, 0x00, 0x00, 0x00, 0x03, 0x00, 0x00, 0x00, 0x03, 0x00, 0x00, 0x00, 0x03, 0x00, 0x00, 0x00, 0x03, 0x00, 0x00, 0x00, 
	0x00, 0x00, 0x00, 0x01, 0x01, 0x00, 0x00, 0x00, 0x0e, 0x00, 0x00, 0x00, 0x01, 0x00, 0x00, 0x00, 0x0d, 0x00, 0x00, 0x00, 
	0x00, 0x00, 0x0e, 0x00, 0x18, 0x00, 0x14, 0x00, 0x10, 0x00, 0x0c, 0x00, 0x0b, 0x00, 0x04, 0x00, 0x0e, 0x00, 0x00, 0x00, 
	0x20, 0x00, 0x00, 0x00, 0x00, 0x00, 0x00, 0x01, 0x28, 0x00, 0x00, 0x00, 0x2c, 0x00, 0x00, 0x00, 0x01, 0x00, 0x00, 0x00, 
	0x0c, 0x00, 0x10, 0x00, 0x00, 0x00, 0x0c, 0x00, 0x08, 0x00, 0x07, 0x00, 0x0c, 0x00, 0x00, 0x00, 0x00, 0x00, 0x00, 0x01, 
	0x01, 0x00, 0x00, 0x00, 0x01, 0x00, 0x00, 0x00, 0x01, 0x00, 0x00, 0x00, 0x0d, 0x00, 0x00, 0x00, 0x03, 0x00, 0x00, 0x00, 
	0x0c, 0x00, 0x00, 0x00, 0x02, 0x00, 0x00, 0x00, 0x03, 0x00, 0x00, 0x00, 0x00, 0x00, 0x0a, 0x00, 0x0c, 0x00, 0x00, 0x00, 
	0x08, 0x00, 0x04, 0x00, 0x0a, 0x00, 0x00, 0x00, 0x08, 0x00, 0x00, 0x00, 0x0c, 0x00, 0x00, 0x00, 0x01, 0x00, 0x00, 0x00, 
	0x0c, 0x00, 0x00, 0x00, 0x01, 0x00, 0x00, 0x00, 0x00, 0x00, 0x00, 0x00, 0x01, 0x00, 0x00, 0x00, 0x17, 0x00, 0x00, 0x00, 
	0x01, 0x00, 0x00, 0x00, 0x00, 0x00, 0x00, 0x00, 0x18, 0x00, 0x00, 0x00, 0xa8, 0x14, 0x00, 0x00, 0x24, 0x14, 0x00, 0x00, 
	0x40, 0x13, 0x00, 0x00, 0xd8, 0x11, 0x00, 0x00, 0xac, 0x10, 0x00, 0x00, 0xe8, 0x0e, 0x00, 0x00, 0xfc, 0x0c, 0x00, 0x00, 
	0x78, 0x0a, 0x00, 0x00, 0x0c, 0x0a, 0x00, 0x00, 0x90, 0x09, 0x00, 0x00, 0x24, 0x09, 0x00, 0x00, 0xa8, 0x08, 0x00, 0x00, 
	0x2c, 0x08, 0x00, 0x00, 0xe0, 0x06, 0x00, 0x00, 0x4c, 0x06, 0x00, 0x00, 0x18, 0x05, 0x00, 0x00, 0x84, 0x04, 0x00, 0x00, 
	0x50, 0x03, 0x00, 0x00, 0xbc, 0x02, 0x00, 0x00, 0x30, 0x02, 0x00, 0x00, 0x74, 0x01, 0x00, 0x00, 0xd8, 0x00, 0x00, 0x00, 
	0x5c, 0x00, 0x00, 0x00, 0x04, 0x00, 0x00, 0x00, 0xcc, 0xeb, 0xff, 0xff, 0x14, 0x00, 0x00, 0x00, 0x1c, 0x00, 0x00, 0x00, 
	0x1c, 0x00, 0x00, 0x00, 0x18, 0x00, 0x00, 0x00, 0x34, 0x00, 0x00, 0x00, 0x02, 0x00, 0x00, 0x00, 0xff, 0xff, 0xff, 0xff, 
	0x04, 0x00, 0x00, 0x00, 0xb0, 0xeb, 0xff, 0xff, 0x19, 0x00, 0x00, 0x00, 0x53, 0x74, 0x61, 0x74, 0x65, 0x66, 0x75, 0x6c, 
	0x50, 0x61, 0x72, 0x74, 0x69, 0x74, 0x69, 0x6f, 0x6e, 0x65, 0x64, 0x43, 0x61, 0x6c, 0x6c, 0x3a, 0x30, 0x00, 0x00, 0x00, 
	0x02, 0x00, 0x00, 0x00, 0x01, 0x00, 0x00, 0x00, 0x04, 0x00, 0x00, 0x00, 0x6c, 0xf8, 0xff, 0xff, 0x18, 0x00, 0x00, 0x00, 
	0x20, 0x00, 0x00, 0x00, 0x40, 0x00, 0x00, 0x00, 0x17, 0x00, 0x00, 0x00, 0x00, 0x00, 0x00, 0x09, 0x54, 0x00, 0x00, 0x00, 
	0x02, 0x00, 0x00, 0x00, 0xff, 0xff, 0xff, 0xff, 0x04, 0x00, 0x00, 0x00, 0x7c, 0xed, 0xff, 0xff, 0x08, 0x00, 0x00, 0x00, 
	0x14, 0x00, 0x00, 0x00, 0x01, 0x00, 0x00, 0x00, 0x80, 0xff, 0xff, 0xff, 0xff, 0xff, 0xff, 0xff, 0x00, 0x00, 0x00, 0x00, 
	0x01, 0x00, 0x00, 0x00, 0x00, 0x00, 0x80, 0x3b, 0x1a, 0x00, 0x00, 0x00, 0x53, 0x74, 0x61, 0x74, 0x65, 0x66, 0x75, 0x6c, 
	0x50, 0x61, 0x72, 0x74, 0x69, 0x74, 0x69, 0x6f, 0x6e, 0x65, 0x64, 0x43, 0x61, 0x6c, 0x6c, 0x3a, 0x30, 0x31, 0x00, 0x00, 
	0x02, 0x00, 0x00, 0x00, 0x01, 0x00, 0x00, 0x00, 0x04, 0x00, 0x00, 0x00, 0xe4, 0xf8, 0xff, 0xff, 0x18, 0x00, 0x00, 0x00, 
	0x20, 0x00, 0x00, 0x00, 0x3c, 0x00, 0x00, 0x00, 0x16, 0x00, 0x00, 0x00, 0x00, 0x00, 0x00, 0x09, 0x74, 0x00, 0x00, 0x00, 
	0x02, 0x00, 0x00, 0x00, 0xff, 0xff, 0xff, 0xff, 0x04, 0x00, 0x00, 0x00, 0xf4, 0xed, 0xff, 0xff, 0x08, 0x00, 0x00, 0x00, 
	0x10, 0x00, 0x00, 0x00, 0x01, 0x00, 0x00, 0x00, 0x05, 0x00, 0x00, 0x00, 0x00, 0x00, 0x00, 0x00, 0x01, 0x00, 0x00, 0x00, 
	0x0b, 0x95, 0x39, 0x3e, 0x3c, 0x00, 0x00, 0x00, 0x73, 0x65, 0x71, 0x75, 0x65, 0x6e, 0x74, 0x69, 0x61, 0x6c, 0x5f, 0x32, 
	0x36, 0x2f, 0x64, 0x65, 0x6e, 0x73, 0x65, 0x5f, 0x35, 0x33, 0x2f, 0x4d, 0x61, 0x74, 0x4d, 0x75, 0x6c, 0x3b, 0x73, 0x65, 
	0x71, 0x75, 0x65, 0x6e, 0x74, 0x69, 0x61, 0x6c, 0x5f, 0x32, 0x36, 0x2f, 0x64, 0x65, 0x6e, 0x73, 0x65, 0x5f, 0x35, 0x33, 
	0x2f, 0x42, 0x69, 0x61, 0x73, 0x41, 0x64, 0x64, 0x00, 0x00, 0x00, 0x00, 0x02, 0x00, 0x00, 0x00, 0x01, 0x00, 0x00, 0x00, 
	0x04, 0x00, 0x00, 0x00, 0x7c, 0xf9, 0xff, 0xff, 0x18, 0x00, 0x00, 0x00, 0x20, 0x00, 0x00, 0x00, 0x40, 0x00, 0x00, 0x00, 
	0x15, 0x00, 0x00, 0x00, 0x00, 0x00, 0x00, 0x09, 0x94, 0x00, 0x00, 0x00, 0x02, 0x00, 0x00, 0x00, 0xff, 0xff, 0xff, 0xff, 
	0x10, 0x00, 0x00, 0x00, 0x8c, 0xee, 0xff, 0xff, 0x08, 0x00, 0x00, 0x00, 0x14, 0x00, 0x00, 0x00, 0x01, 0x00, 0x00, 0x00, 
	0x80, 0xff, 0xff, 0xff, 0xff, 0xff, 0xff, 0xff, 0x00, 0x00, 0x00, 0x00, 0x01, 0x00, 0x00, 0x00, 0x27, 0x75, 0xf9, 0x3c, 
	0x58, 0x00, 0x00, 0x00, 0x73, 0x65, 0x71, 0x75, 0x65, 0x6e, 0x74, 0x69, 0x61, 0x6c, 0x5f, 0x32, 0x36, 0x2f, 0x64, 0x65, 
	0x6e, 0x73, 0x65, 0x5f, 0x35, 0x32, 0x2f, 0x4d, 0x61, 0x74, 0x4d, 0x75, 0x6c, 0x3b, 0x73, 0x65, 0x71, 0x75, 0x65, 0x6e, 
	0x74, 0x69, 0x61, 0x6c, 0x5f, 0x32, 0x36, 0x2f, 0x64, 0x65, 0x6e, 0x73, 0x65, 0x5f, 0x35, 0x32, 0x2f, 0x52, 0x65, 0x6c, 
	0x75, 0x3b, 0x73, 0x65, 0x71, 0x75, 0x65, 0x6e, 0x74, 0x69, 0x61, 0x6c, 0x5f, 0x32, 0x36, 0x2f, 0x64, 0x65, 0x6e, 0x73, 
	0x65, 0x5f, 0x35, 0x32, 0x2f, 0x42, 0x69, 0x61, 0x73, 0x41, 0x64, 0x64, 0x00, 0x00, 0x00, 0x00, 0x02, 0x00, 0x00, 0x00, 
	0x01, 0x00, 0x00, 0x00, 0x10, 0x00, 0x00, 0x00, 0x34, 0xfa, 0xff, 0xff, 0x18, 0x00, 0x00, 0x00, 0x20, 0x00, 0x00, 0x00, 
	0x3c, 0x00, 0x00, 0x00, 0x14, 0x00, 0x00, 0x00, 0x00, 0x00, 0x00, 0x09, 0x64, 0x00, 0x00, 0x00, 0x02, 0x00, 0x00, 0x00, 
	0xff, 0xff, 0xff, 0xff, 0x20, 0x00, 0x00, 0x00, 0x44, 0xef, 0xff, 0xff, 0x08, 0x00, 0x00, 0x00, 0x10, 0x00, 0x00, 0x00, 
	0x01, 0x00, 0x00, 0x00, 0x80, 0xff, 0xff, 0xff, 0xff, 0xff, 0xff, 0xff, 0x01, 0x00, 0x00, 0x00, 0xc6, 0xbd, 0x70, 0x3c, 
	0x2e, 0x00, 0x00, 0x00, 0x73, 0x65, 0x71, 0x75, 0x65, 0x6e, 0x74, 0x69, 0x61, 0x6c, 0x5f, 0x32, 0x36, 0x2f, 0x67, 0x6c, 
	0x6f, 0x62, 0x61, 0x6c, 0x5f, 0x61, 0x76, 0x65, 0x72, 0x61, 0x67, 0x65, 0x5f, 0x70, 0x6f, 0x6f, 0x6c, 0x69, 0x6e, 0x67, 
	0x32, 0x64, 0x5f, 0x31, 0x33, 0x2f, 0x4d, 0x65, 0x61, 0x6e, 0x00, 0x00, 0x02, 0x00, 0x00, 0x00, 0x01, 0x00, 0x00, 0x00, 
	0x20, 0x00, 0x00, 0x00, 0xbc, 0xfa, 0xff, 0xff, 0x18, 0x00, 0x00, 0x00, 0x28, 0x00, 0x00, 0x00, 0x44, 0x00, 0x00, 0x00, 
	0x13, 0x00, 0x00, 0x00, 0x00, 0x00, 0x00, 0x09, 0x64, 0x00, 0x00, 0x00, 0x04, 0x00, 0x00, 0x00, 0xff, 0xff, 0xff, 0xff, 
	0x05, 0x00, 0x00, 0x00, 0x01, 0x00, 0x00, 0x00, 0x20, 0x00, 0x00, 0x00, 0xd4, 0xef, 0xff, 0xff, 0x08, 0x00, 0x00, 0x00, 
	0x10, 0x00, 0x00, 0x00, 0x01, 0x00, 0x00, 0x00, 0x80, 0xff, 0xff, 0xff, 0xff, 0xff, 0xff, 0xff, 0x01, 0x00, 0x00, 0x00, 
	0x64, 0xa6, 0xcc, 0x3c, 0x26, 0x00, 0x00, 0x00, 0x73, 0x65, 0x71, 0x75, 0x65, 0x6e, 0x74, 0x69, 0x61, 0x6c, 0x5f, 0x32, 
	0x36, 0x2f, 0x6d, 0x61, 0x78, 0x5f, 0x70, 0x6f, 0x6f, 0x6c, 0x69, 0x6e, 0x67, 0x32, 0x64, 0x5f, 0x35, 0x38, 0x2f, 0x4d, 
	0x61, 0x78, 0x50, 0x6f, 0x6f, 0x6c, 0x00, 0x00, 0x04, 0x00, 0x00, 0x00, 0x01, 0x00, 0x00, 0x00, 0x05, 0x00, 0x00, 0x00, 
	0x01, 0x00, 0x00, 0x00, 0x20, 0x00, 0x00, 0x00, 0x4c, 0xfb, 0xff, 0xff, 0x18, 0x00, 0x00, 0x00, 0x28, 0x00, 0x00, 0x00, 
	0x44, 0x00, 0x00, 0x00, 0x12, 0x00, 0x00, 0x00, 0x00, 0x00, 0x00, 0x09, 0x04, 0x01, 0x00, 0x00, 0x04, 0x00, 0x00, 0x00, 
	0xff, 0xff, 0xff, 0xff, 0x0e, 0x00, 0x00, 0x00, 0x01, 0x00, 0x00, 0x00, 0x20, 0x00, 0x00, 0x00, 0x64, 0xf0, 0xff, 0xff, 
	0x08, 0x00, 0x00, 0x00, 0x10, 0x00, 0x00, 0x00, 0x01, 0x00, 0x00, 0x00, 0x80, 0xff, 0xff, 0xff, 0xff, 0xff, 0xff, 0xff, 
	0x01, 0x00, 0x00, 0x00, 0x64, 0xa6, 0xcc, 0x3c, 0xc5, 0x00, 0x00, 0x00, 0x73, 0x65, 0x71, 0x75, 0x65, 0x6e, 0x74, 0x69, 
	0x61, 0x6c, 0x5f, 0x32, 0x36, 0x2f, 0x61, 0x63, 0x74, 0x69, 0x76, 0x61, 0x74, 0x69, 0x6f, 0x6e, 0x5f, 0x35, 0x38, 0x2f, 
	0x52, 0x65, 0x6c, 0x75, 0x3b, 0x73, 0x65, 0x71, 0x75, 0x65, 0x6e, 0x74, 0x69, 0x61, 0x6c, 0x5f, 0x32, 0x36, 0x2f, 0x62, 
	0x61, 0x74, 0x63, 0x68, 0x5f, 0x6e, 0x6f, 0x72, 0x6d, 0x61, 0x6c, 0x69, 0x7a, 0x61, 0x74, 0x69, 0x6f, 0x6e, 0x5f, 0x35, 
	0x38, 0x2f, 0x46, 0x75, 0x73, 0x65, 0x64, 0x42, 0x61, 0x74, 0x63, 0x68, 0x4e, 0x6f, 0x72, 0x6d, 0x56, 0x33, 0x3b, 0x73, 
	0x65, 0x71, 0x75, 0x65, 0x6e, 0x74, 0x69, 0x61, 0x6c, 0x5f, 0x32, 0x36, 0x2f, 0x63, 0x6f, 0x6e, 0x76, 0x32, 0x64, 0x5f, 
	0x35, 0x38, 0x2f, 0x42, 0x69, 0x61, 0x73, 0x41, 0x64, 0x64, 0x2f, 0x52, 0x65, 0x61, 0x64, 0x56, 0x61, 0x72, 0x69, 0x61, 
	0x62, 0x6c, 0x65, 0x4f, 0x70, 0x3b, 0x73, 0x65, 0x71, 0x75, 0x65, 0x6e, 0x74, 0x69, 0x61, 0x6c, 0x5f, 0x32, 0x36, 0x2f, 
	0x63, 0x6f, 0x6e, 0x76, 0x32, 0x64, 0x5f, 0x35, 0x38, 0x2f, 0x42, 0x69, 0x61, 0x73, 0x41, 0x64, 0x64, 0x3b, 0x73, 0x65, 
	0x71, 0x75, 0x65, 0x6e, 0x74, 0x69, 0x61, 0x6c, 0x5f, 0x32, 0x36, 0x2f, 0x63, 0x6f, 0x6e, 0x76, 0x32, 0x64, 0x5f, 0x35, 
	0x38, 0x2f, 0x43, 0x6f, 0x6e, 0x76, 0x32, 0x44, 0x31, 0x00, 0x00, 0x00, 0x04, 0x00, 0x00, 0x00, 0x01, 0x00, 0x00, 0x00, 
	0x0e, 0x00, 0x00, 0x00, 0x01, 0x00, 0x00, 0x00, 0x20, 0x00, 0x00, 0x00, 0x7c, 0xfc, 0xff, 0xff, 0x18, 0x00, 0x00, 0x00, 
	0x28, 0x00, 0x00, 0x00, 0x44, 0x00, 0x00, 0x00, 0x11, 0x00, 0x00, 0x00, 0x00, 0x00, 0x00, 0x09, 0x64, 0x00, 0x00, 0x00, 
	0x04, 0x00, 0x00, 0x00, 0xff, 0xff, 0xff, 0xff, 0x0e, 0x00, 0x00, 0x00, 0x01, 0x00, 0x00, 0x00, 0x10, 0x00, 0x00, 0x00, 
	0x94, 0xf1, 0xff, 0xff, 0x08, 0x00, 0x00, 0x00, 0x10, 0x00, 0x00, 0x00, 0x01, 0x00, 0x00, 0x00, 0x80, 0xff, 0xff, 0xff, 
	0xff, 0xff, 0xff, 0xff, 0x01, 0x00, 0x00, 0x00, 0x05, 0xe6, 0xba, 0x3c, 0x26, 0x00, 0x00, 0x00, 0x73, 0x65, 0x71, 0x75, 
	0x65, 0x6e, 0x74, 0x69, 0x61, 0x6c, 0x5f, 0x32, 0x36, 0x2f, 0x6d, 0x61, 0x78, 0x5f, 0x70, 0x6f, 0x6f, 0x6c, 0x69, 0x6e, 
	0x67, 0x32, 0x64, 0x5f, 0x35, 0x37, 0x2f, 0x4d, 0x61, 0x78, 0x50, 0x6f, 0x6f, 0x6c, 0x00, 0x00, 0x04, 0x00, 0x00, 0x00, 
	0x01, 0x00, 0x00, 0x00, 0x0e, 0x00, 0x00, 0x00, 0x01, 0x00, 0x00, 0x00, 0x10, 0x00, 0x00, 0x00, 0x0c, 0xfd, 0xff, 0xff, 
	0x18, 0x00, 0x00, 0x00, 0x28, 0x00, 0x00, 0x00, 0x44, 0x00, 0x00, 0x00, 0x10, 0x00, 0x00, 0x00, 0x00, 0x00, 0x00, 0x09, 
	0x04, 0x01, 0x00, 0x00, 0x04, 0x00, 0x00, 0x00, 0xff, 0xff, 0xff, 0xff, 0x2a, 0x00, 0x00, 0x00, 0x01, 0x00, 0x00, 0x00, 
	0x10, 0x00, 0x00, 0x00, 0x24, 0xf2, 0xff, 0xff, 0x08, 0x00, 0x00, 0x00, 0x10, 0x00, 0x00, 0x00, 0x01, 0x00, 0x00, 0x00, 
	0x80, 0xff, 0xff, 0xff, 0xff, 0xff, 0xff, 0xff, 0x01, 0x00, 0x00, 0x00, 0x05, 0xe6, 0xba, 0x3c, 0xc5, 0x00, 0x00, 0x00, 
	0x73, 0x65, 0x71, 0x75, 0x65, 0x6e, 0x74, 0x69, 0x61, 0x6c, 0x5f, 0x32, 0x36, 0x2f, 0x61, 0x63, 0x74, 0x69, 0x76, 0x61, 
	0x74, 0x69, 0x6f, 0x6e, 0x5f, 0x35, 0x37, 0x2f, 0x52, 0x65, 0x6c, 0x75, 0x3b, 0x73, 0x65, 0x71, 0x75, 0x65, 0x6e, 0x74, 
	0x69, 0x61, 0x6c, 0x5f, 0x32, 0x36, 0x2f, 0x62, 0x61, 0x74, 0x63, 0x68, 0x5f, 0x6e, 0x6f, 0x72, 0x6d, 0x61, 0x6c, 0x69, 
	0x7a, 0x61, 0x74, 0x69, 0x6f, 0x6e, 0x5f, 0x35, 0x37, 0x2f, 0x46, 0x75, 0x73, 0x65, 0x64, 0x42, 0x61, 0x74, 0x63, 0x68, 
	0x4e, 0x6f, 0x72, 0x6d, 0x56, 0x33, 0x3b, 0x73, 0x65, 0x71, 0x75, 0x65, 0x6e, 0x74, 0x69, 0x61, 0x6c, 0x5f, 0x32, 0x36, 
	0x2f, 0x63, 0x6f, 0x6e, 0x76, 0x32, 0x64, 0x5f, 0x35, 0x37, 0x2f, 0x42, 0x69, 0x61, 0x73, 0x41, 0x64, 0x64, 0x2f, 0x52, 
	0x65, 0x61, 0x64, 0x56, 0x61, 0x72, 0x69, 0x61, 0x62, 0x6c, 0x65, 0x4f, 0x70, 0x3b, 0x73, 0x65, 0x71, 0x75, 0x65, 0x6e, 
	0x74, 0x69, 0x61, 0x6c, 0x5f, 0x32, 0x36, 0x2f, 0x63, 0x6f, 0x6e, 0x76, 0x32, 0x64, 0x5f, 0x35, 0x37, 0x2f, 0x42, 0x69, 
	0x61, 0x73, 0x41, 0x64, 0x64, 0x3b, 0x73, 0x65, 0x71, 0x75, 0x65, 0x6e, 0x74, 0x69, 0x61, 0x6c, 0x5f, 0x32, 0x36, 0x2f, 
	0x63, 0x6f, 0x6e, 0x76, 0x32, 0x64, 0x5f, 0x35, 0x37, 0x2f, 0x43, 0x6f, 0x6e, 0x76, 0x32, 0x44, 0x31, 0x00, 0x00, 0x00, 
	0x04, 0x00, 0x00, 0x00, 0x01, 0x00, 0x00, 0x00, 0x2a, 0x00, 0x00, 0x00, 0x01, 0x00, 0x00, 0x00, 0x10, 0x00, 0x00, 0x00, 
	0x3c, 0xfe, 0xff, 0xff, 0x18, 0x00, 0x00, 0x00, 0x28, 0x00, 0x00, 0x00, 0x44, 0x00, 0x00, 0x00, 0x0f, 0x00, 0x00, 0x00, 
	0x00, 0x00, 0x00, 0x09, 0x64, 0x00, 0x00, 0x00, 0x04, 0x00, 0x00, 0x00, 0xff, 0xff, 0xff, 0xff, 0x2a, 0x00, 0x00, 0x00, 
	0x01, 0x00, 0x00, 0x00, 0x08, 0x00, 0x00, 0x00, 0x54, 0xf3, 0xff, 0xff, 0x08, 0x00, 0x00, 0x00, 0x10, 0x00, 0x00, 0x00, 
	0x01, 0x00, 0x00, 0x00, 0x80, 0xff, 0xff, 0xff, 0xff, 0xff, 0xff, 0xff, 0x01, 0x00, 0x00, 0x00, 0x96, 0x82, 0xcf, 0x3c, 
	0x26, 0x00, 0x00, 0x00, 0x73, 0x65, 0x71, 0x75, 0x65, 0x6e, 0x74, 0x69, 0x61, 0x6c, 0x5f, 0x32, 0x36, 0x2f, 0x6d, 0x61, 
	0x78, 0x5f, 0x70, 0x6f, 0x6f, 0x6c, 0x69, 0x6e, 0x67, 0x32, 0x64, 0x5f, 0x35, 0x36, 0x2f, 0x4d, 0x61, 0x78, 0x50, 0x6f, 
	0x6f, 0x6c, 0x00, 0x00, 0x04, 0x00, 0x00, 0x00, 0x01, 0x00, 0x00, 0x00, 0x2a, 0x00, 0x00, 0x00, 0x01, 0x00, 0x00, 0x00, 
	0x08, 0x00, 0x00, 0x00, 0xcc, 0xfe, 0xff, 0xff, 0x18, 0x00, 0x00, 0x00, 0x28, 0x00, 0x00, 0x00, 0x48, 0x00, 0x00, 0x00, 
	0x0e, 0x00, 0x00, 0x00, 0x00, 0x00, 0x00, 0x09, 0x08, 0x01, 0x00, 0x00, 0x04, 0x00, 0x00, 0x00, 0xff, 0xff, 0xff, 0xff, 
	0x80, 0x00, 0x00, 0x00, 0x03, 0x00, 0x00, 0x00, 0x08, 0x00, 0x00, 0x00, 0xe4, 0xf3, 0xff, 0xff, 0x08, 0x00, 0x00, 0x00, 
	0x14, 0x00, 0x00, 0x00, 0x01, 0x00, 0x00, 0x00, 0x80, 0xff, 0xff, 0xff, 0xff, 0xff, 0xff, 0xff, 0x00, 0x00, 0x00, 0x00, 
	0x01, 0x00, 0x00, 0x00, 0x96, 0x82, 0xcf, 0x3c, 0xc5, 0x00, 0x00, 0x00, 0x73, 0x65, 0x71, 0x75, 0x65, 0x6e, 0x74, 0x69, 
	0x61, 0x6c, 0x5f, 0x32, 0x36, 0x2f, 0x61, 0x63, 0x74, 0x69, 0x76, 0x61, 0x74, 0x69, 0x6f, 0x6e, 0x5f, 0x35, 0x36, 0x2f, 
	0x52, 0x65, 0x6c, 0x75, 0x3b, 0x73, 0x65, 0x71, 0x75, 0x65, 0x6e, 0x74, 0x69, 0x61, 0x6c, 0x5f, 0x32, 0x36, 0x2f, 0x62, 
	0x61, 0x74, 0x63, 0x68, 0x5f, 0x6e, 0x6f, 0x72, 0x6d, 0x61, 0x6c, 0x69, 0x7a, 0x61, 0x74, 0x69, 0x6f, 0x6e, 0x5f, 0x35, 
	0x36, 0x2f, 0x46, 0x75, 0x73, 0x65, 0x64, 0x42, 0x61, 0x74, 0x63, 0x68, 0x4e, 0x6f, 0x72, 0x6d, 0x56, 0x33, 0x3b, 0x73, 
	0x65, 0x71, 0x75, 0x65, 0x6e, 0x74, 0x69, 0x61, 0x6c, 0x5f, 0x32, 0x36, 0x2f, 0x63, 0x6f, 0x6e, 0x76, 0x32, 0x64, 0x5f, 
	0x35, 0x36, 0x2f, 0x42, 0x69, 0x61, 0x73, 0x41, 0x64, 0x64, 0x2f, 0x52, 0x65, 0x61, 0x64, 0x56, 0x61, 0x72, 0x69, 0x61, 
	0x62, 0x6c, 0x65, 0x4f, 0x70, 0x3b, 0x73, 0x65, 0x71, 0x75, 0x65, 0x6e, 0x74, 0x69, 0x61, 0x6c, 0x5f, 0x32, 0x36, 0x2f, 
	0x63, 0x6f, 0x6e, 0x76, 0x32, 0x64, 0x5f, 0x35, 0x36, 0x2f, 0x42, 0x69, 0x61, 0x73, 0x41, 0x64, 0x64, 0x3b, 0x73, 0x65, 
	0x71, 0x75, 0x65, 0x6e, 0x74, 0x69, 0x61, 0x6c, 0x5f, 0x32, 0x36, 0x2f, 0x63, 0x6f, 0x6e, 0x76, 0x32, 0x64, 0x5f, 0x35, 
	0x36, 0x2f, 0x43, 0x6f, 0x6e, 0x76, 0x32, 0x44, 0x31, 0x00, 0x00, 0x00, 0x04, 0x00, 0x00, 0x00, 0x01, 0x00, 0x00, 0x00, 
	0x80, 0x00, 0x00, 0x00, 0x03, 0x00, 0x00, 0x00, 0x08, 0x00, 0x00, 0x00, 0x14, 0x00, 0x1c, 0x00, 0x18, 0x00, 0x17, 0x00, 
	0x10, 0x00, 0x0c, 0x00, 0x08, 0x00, 0x00, 0x00, 0x00, 0x00, 0x04, 0x00, 0x14, 0x00, 0x00, 0x00, 0x18, 0x00, 0x00, 0x00, 
	0x28, 0x00, 0x00, 0x00, 0x44, 0x00, 0x00, 0x00, 0x0d, 0x00, 0x00, 0x00, 0x00, 0x00, 0x00, 0x09, 0x4c, 0x00, 0x00, 0x00, 
	0x04, 0x00, 0x00, 0x00, 0xff, 0xff, 0xff, 0xff, 0x80, 0x00, 0x00, 0x00, 0x03, 0x00, 0x00, 0x00, 0x01, 0x00, 0x00, 0x00, 
	0x2c, 0xf5, 0xff, 0xff, 0x08, 0x00, 0x00, 0x00, 0x10, 0x00, 0x00, 0x00, 0x01, 0x00, 0x00, 0x00, 0xf6, 0xff, 0xff, 0xff, 
	0xff, 0xff, 0xff, 0xff, 0x01, 0x00, 0x00, 0x00, 0x90, 0x8f, 0x6f, 0x41, 0x0c, 0x00, 0x00, 0x00, 0x74, 0x66, 0x6c, 0x2e, 
	0x71, 0x75, 0x61, 0x6e, 0x74, 0x69, 0x7a, 0x65, 0x00, 0x00, 0x00, 0x00, 0x04, 0x00, 0x00, 0x00, 0x01, 0x00, 0x00, 0x00, 
	0x80, 0x00, 0x00, 0x00, 0x03, 0x00, 0x00, 0x00, 0x01, 0x00, 0x00, 0x00, 0xba, 0xf4, 0xff, 0xff, 0x14, 0x00, 0x00, 0x00, 
	0x34, 0x00, 0x00, 0x00, 0x0c, 0x00, 0x00, 0x00, 0x00, 0x00, 0x00, 0x02, 0x5c, 0x00, 0x00, 0x00, 0x8c, 0xf5, 0xff, 0xff, 
	0x08, 0x00, 0x00, 0x00, 0x14, 0x00, 0x00, 0x00, 0x01, 0x00, 0x00, 0x00, 0x00, 0x00, 0x00, 0x00, 0x00, 0x00, 0x00, 0x00, 
	0x00, 0x00, 0x00, 0x00, 0x01, 0x00, 0x00, 0x00, 0x1b, 0x45, 0xdb, 0x39, 0x2d, 0x00, 0x00, 0x00, 0x73, 0x65, 0x71, 0x75, 
	0x65, 0x6e, 0x74, 0x69, 0x61, 0x6c, 0x5f, 0x32, 0x36, 0x2f, 0x64, 0x65, 0x6e, 0x73, 0x65, 0x5f, 0x35, 0x33, 0x2f, 0x42, 
	0x69, 0x61, 0x73, 0x41, 0x64, 0x64, 0x2f, 0x52, 0x65, 0x61, 0x64, 0x56, 0x61, 0x72, 0x69, 0x61, 0x62, 0x6c, 0x65, 0x4f, 
	0x70, 0x00, 0x00, 0x00, 0x01, 0x00, 0x00, 0x00, 0x04, 0x00, 0x00, 0x00, 0x32, 0xf5, 0xff, 0xff, 0x14, 0x00, 0x00, 0x00, 
	0x30, 0x00, 0x00, 0x00, 0x0b, 0x00, 0x00, 0x00, 0x00, 0x00, 0x00, 0x09, 0x48, 0x00, 0x00, 0x00, 0x04, 0xf6, 0xff, 0xff, 
	0x08, 0x00, 0x00, 0x00, 0x10, 0x00, 0x00, 0x00, 0x01, 0x00, 0x00, 0x00, 0x00, 0x00, 0x00, 0x00, 0x00, 0x00, 0x00, 0x00, 
	0x01, 0x00, 0x00, 0x00, 0x46, 0x05, 0x61, 0x3c, 0x1d, 0x00, 0x00, 0x00, 0x73, 0x65, 0x71, 0x75, 0x65, 0x6e, 0x74, 0x69, 
	0x61, 0x6c, 0x5f, 0x32, 0x36, 0x2f, 0x64, 0x65, 0x6e, 0x73, 0x65, 0x5f, 0x35, 0x33, 0x2f, 0x4d, 0x61, 0x74, 0x4d, 0x75, 
	0x6c, 0x00, 0x00, 0x00, 0x02, 0x00, 0x00, 0x00, 0x04, 0x00, 0x00, 0x00, 0x10, 0x00, 0x00, 0x00, 0x9a, 0xf5, 0xff, 0xff, 
	0x14, 0x00, 0x00, 0x00, 0x34, 0x00, 0x00, 0x00, 0x0a, 0x00, 0x00, 0x00, 0x00, 0x00, 0x00, 0x02, 0x5c, 0x00, 0x00, 0x00, 
	0x6c, 0xf6, 0xff, 0xff, 0x08, 0x00, 0x00, 0x00, 0x14, 0x00, 0x00, 0x00, 0x01, 0x00, 0x00, 0x00, 0x00, 0x00, 0x00, 0x00, 
	0x00, 0x00, 0x00, 0x00, 0x00, 0x00, 0x00, 0x00, 0x01, 0x00, 0x00, 0x00, 0x58, 0x1e, 0x39, 0x39, 0x2d, 0x00, 0x00, 0x00, 
	0x73, 0x65, 0x71, 0x75, 0x65, 0x6e, 0x74, 0x69, 0x61, 0x6c, 0x5f, 0x32, 0x36, 0x2f, 0x64, 0x65, 0x6e, 0x73, 0x65, 0x5f, 
	0x35, 0x32, 0x2f, 0x42, 0x69, 0x61, 0x73, 0x41, 0x64, 0x64, 0x2f, 0x52, 0x65, 0x61, 0x64, 0x56, 0x61, 0x72, 0x69, 0x61, 
	0x62, 0x6c, 0x65, 0x4f, 0x70, 0x00, 0x00, 0x00, 0x01, 0x00, 0x00, 0x00, 0x10, 0x00, 0x00, 0x00, 0x12, 0xf6, 0xff, 0xff, 
	0x14, 0x00, 0x00, 0x00, 0x30, 0x00, 0x00, 0x00, 0x09, 0x00, 0x00, 0x00, 0x00, 0x00, 0x00, 0x09, 0x48, 0x00, 0x00, 0x00, 
	0xe4, 0xf6, 0xff, 0xff, 0x08, 0x00, 0x00, 0x00, 0x10, 0x00, 0x00, 0x00, 0x01, 0x00, 0x00, 0x00, 0x00, 0x00, 0x00, 0x00, 
	0x00, 0x00, 0x00, 0x00, 0x01, 0x00, 0x00, 0x00, 0x0b, 0xda, 0x44, 0x3c, 0x1d, 0x00, 0x00, 0x00, 0x73, 0x65, 0x71, 0x75, 
	0x65, 0x6e, 0x74, 0x69, 0x61, 0x6c, 0x5f, 0x32, 0x36, 0x2f, 0x64, 0x65, 0x6e, 0x73, 0x65, 0x5f, 0x35, 0x32, 0x2f, 0x4d, 
	0x61, 0x74, 0x4d, 0x75, 0x6c, 0x00, 0x00, 0x00, 0x02, 0x00, 0x00, 0x00, 0x10, 0x00, 0x00, 0x00, 0x20, 0x00, 0x00, 0x00, 
	0x7a, 0xf6, 0xff, 0xff, 0x14, 0x00, 0x00, 0x00, 0xa4, 0x01, 0x00, 0x00, 0x08, 0x00, 0x00, 0x00, 0x00, 0x00, 0x00, 0x02, 
	0x64, 0x02, 0x00, 0x00, 0x4c, 0xf7, 0xff, 0xff, 0x08, 0x00, 0x00, 0x00, 0x08, 0x01, 0x00, 0x00, 0x20, 0x00, 0x00, 0x00, 
	0x00, 0x00, 0x00, 0x00, 0x00, 0x00, 0x00, 0x00, 0x00, 0x00, 0x00, 0x00, 0x00, 0x00, 0x00, 0x00, 0x00, 0x00, 0x00, 0x00, 
	0x00, 0x00, 0x00, 0x00, 0x00, 0x00, 0x00, 0x00, 0x00, 0x00, 0x00, 0x00, 0x00, 0x00, 0x00, 0x00, 0x00, 0x00, 0x00, 0x00, 
	0x00, 0x00, 0x00, 0x00, 0x00, 0x00, 0x00, 0x00, 0x00, 0x00, 0x00, 0x00, 0x00, 0x00, 0x00, 0x00, 0x00, 0x00, 0x00, 0x00, 
	0x00, 0x00, 0x00, 0x00, 0x00, 0x00, 0x00, 0x00, 0x00, 0x00, 0x00, 0x00, 0x00, 0x00, 0x00, 0x00, 0x00, 0x00, 0x00, 0x00, 
	0x00, 0x00, 0x00, 0x00, 0x00, 0x00, 0x00, 0x00, 0x00, 0x00, 0x00, 0x00, 0x00, 0x00, 0x00, 0x00, 0x00, 0x00, 0x00, 0x00, 
	0x00, 0x00, 0x00, 0x00, 0x00, 0x00, 0x00, 0x00, 0x00, 0x00, 0x00, 0x00, 0x00, 0x00, 0x00, 0x00, 0x00, 0x00, 0x00, 0x00, 
	0x00, 0x00, 0x00, 0x00, 0x00, 0x00, 0x00, 0x00, 0x00, 0x00, 0x00, 0x00, 0x00, 0x00, 0x00, 0x00, 0x00, 0x00, 0x00, 0x00, 
	0x00, 0x00, 0x00, 0x00, 0x00, 0x00, 0x00, 0x00, 0x00, 0x00, 0x00, 0x00, 0x00, 0x00, 0x00, 0x00, 0x00, 0x00, 0x00, 0x00, 
	0x00, 0x00, 0x00, 0x00, 0x00, 0x00, 0x00, 0x00, 0x00, 0x00, 0x00, 0x00, 0x00, 0x00, 0x00, 0x00, 0x00, 0x00, 0x00, 0x00, 
	0x00, 0x00, 0x00, 0x00, 0x00, 0x00, 0x00, 0x00, 0x00, 0x00, 0x00, 0x00, 0x00, 0x00, 0x00, 0x00, 0x00, 0x00, 0x00, 0x00, 
	0x00, 0x00, 0x00, 0x00, 0x00, 0x00, 0x00, 0x00, 0x00, 0x00, 0x00, 0x00, 0x00, 0x00, 0x00, 0x00, 0x00, 0x00, 0x00, 0x00, 
	0x00, 0x00, 0x00, 0x00, 0x00, 0x00, 0x00, 0x00, 0x00, 0x00, 0x00, 0x00, 0x00, 0x00, 0x00, 0x00, 0x00, 0x00, 0x00, 0x00, 
	0x00, 0x00, 0x00, 0x00, 0x00, 0x00, 0x00, 0x00, 0x00, 0x00, 0x00, 0x00, 0x00, 0x00, 0x00, 0x00, 0x20, 0x00, 0x00, 0x00, 
	0xe2, 0x02, 0x1b, 0x39, 0xf0, 0xed, 0x10, 0x39, 0xa8, 0x03, 0x2d, 0x39, 0xdf, 0x42, 0x0c, 0x39, 0x4b, 0x41, 0x12, 0x39, 
	0xc7, 0x30, 0xf5, 0x38, 0x2f, 0x5f, 0x00, 0x39, 0x5b, 0xa4, 0xed, 0x38, 0xe0, 0x5a, 0x4a, 0x39, 0x1d, 0xaf, 0x29, 0x39, 
	0x43, 0x1a, 0x10, 0x39, 0xdf, 0xba, 0x1c, 0x39, 0x70, 0xdf, 0xdd, 0x38, 0x1e, 0x44, 0xe4, 0x38, 0x5a, 0x9b, 0x00, 0x39, 
	0x1d, 0x12, 0x30, 0x39, 0xf4, 0x2e, 0xc5, 0x38, 0x9c, 0x8e, 0xbe, 0x38, 0x79, 0x42, 0x03, 0x39, 0x57, 0xe7, 0x01, 0x39, 
	0xb2, 0x9b, 0x0a, 0x39, 0x4b, 0x19, 0xf7, 0x38, 0xd8, 0x8e, 0x15, 0x39, 0xb4, 0xaa, 0xe9, 0x38, 0xa8, 0x66, 0xe7, 0x38, 
	0x77, 0x0c, 0xf6, 0x38, 0x1d, 0x6a, 0x01, 0x39, 0xf5, 0x14, 0x03, 0x39, 0x95, 0xc5, 0x21, 0x39, 0xb0, 0xfc, 0x0b, 0x39, 
	0xfe, 0x66, 0x04, 0x39, 0x4f, 0x1f, 0xaf, 0x38, 0xc4, 0x00, 0x00, 0x00, 0x73, 0x65, 0x71, 0x75, 0x65, 0x6e, 0x74, 0x69, 
	0x61, 0x6c, 0x5f, 0x32, 0x36, 0x2f, 0x61, 0x63, 0x74, 0x69, 0x76, 0x61, 0x74, 0x69, 0x6f, 0x6e, 0x5f, 0x35, 0x38, 0x2f, 
	0x52, 0x65, 0x6c, 0x75, 0x3b, 0x73, 0x65, 0x71, 0x75, 0x65, 0x6e, 0x74, 0x69, 0x61, 0x6c, 0x5f, 0x32, 0x36, 0x2f, 0x62, 
	0x61, 0x74, 0x63, 0x68, 0x5f, 0x6e, 0x6f, 0x72, 0x6d, 0x61, 0x6c, 0x69, 0x7a, 0x61, 0x74, 0x69, 0x6f, 0x6e, 0x5f, 0x35, 
	0x38, 0x2f, 0x46, 0x75, 0x73, 0x65, 0x64, 0x42, 0x61, 0x74, 0x63, 0x68, 0x4e, 0x6f, 0x72, 0x6d, 0x56, 0x33, 0x3b, 0x73, 
	0x65, 0x71, 0x75, 0x65, 0x6e, 0x74, 0x69, 0x61, 0x6c, 0x5f, 0x32, 0x36, 0x2f, 0x63, 0x6f, 0x6e, 0x76, 0x32, 0x64, 0x5f, 
	0x35, 0x38, 0x2f, 0x42, 0x69, 0x61, 0x73, 0x41, 0x64, 0x64, 0x2f, 0x52, 0x65, 0x61, 0x64, 0x56, 0x61, 0x72, 0x69, 0x61, 
	0x62, 0x6c, 0x65, 0x4f, 0x70, 0x3b, 0x73, 0x65, 0x71, 0x75, 0x65, 0x6e, 0x74, 0x69, 0x61, 0x6c, 0x5f, 0x32, 0x36, 0x2f, 
	0x63, 0x6f, 0x6e, 0x76, 0x32, 0x64, 0x5f, 0x35, 0x38, 0x2f, 0x42, 0x69, 0x61, 0x73, 0x41, 0x64, 0x64, 0x3b, 0x73, 0x65, 
	0x71, 0x75, 0x65, 0x6e, 0x74, 0x69, 0x61, 0x6c, 0x5f, 0x32, 0x36, 0x2f, 0x63, 0x6f, 0x6e, 0x76, 0x32, 0x64, 0x5f, 0x35, 
	0x38, 0x2f, 0x43, 0x6f, 0x6e, 0x76, 0x32, 0x44, 0x00, 0x00, 0x00, 0x00, 0x01, 0x00, 0x00, 0x00, 0x20, 0x00, 0x00, 0x00, 
	0xfa, 0xf8, 0xff, 0xff, 0x14, 0x00, 0x00, 0x00, 0xa8, 0x01, 0x00, 0x00, 0x07, 0x00, 0x00, 0x00, 0x00, 0x00, 0x00, 0x09, 
	0xc0, 0x01, 0x00, 0x00, 0xcc, 0xf9, 0xff, 0xff, 0x08, 0x00, 0x00, 0x00, 0x0c, 0x01, 0x00, 0x00, 0x20, 0x00, 0x00, 0x00, 
	0x00, 0x00, 0x00, 0x00, 0x00, 0x00, 0x00, 0x00, 0x00, 0x00, 0x00, 0x00, 0x00, 0x00, 0x00, 0x00, 0x00, 0x00, 0x00, 0x00, 
	0x00, 0x00, 0x00, 0x00, 0x00, 0x00, 0x00, 0x00, 0x00, 0x00, 0x00, 0x00, 0x00, 0x00, 0x00, 0x00, 0x00, 0x00, 0x00, 0x00, 
	0x00, 0x00, 0x00, 0x00, 0x00, 0x00, 0x00, 0x00, 0x00, 0x00, 0x00, 0x00, 0x00, 0x00, 0x00, 0x00, 0x00, 0x00, 0x00, 0x00, 
	0x00, 0x00, 0x00, 0x00, 0x00, 0x00, 0x00, 0x00, 0x00, 0x00, 0x00, 0x00, 0x00, 0x00, 0x00, 0x00, 0x00, 0x00, 0x00, 0x00, 
	0x00, 0x00, 0x00, 0x00, 0x00, 0x00, 0x00, 0x00, 0x00, 0x00, 0x00, 0x00, 0x00, 0x00, 0x00, 0x00, 0x00, 0x00, 0x00, 0x00, 
	0x00, 0x00, 0x00, 0x00, 0x00, 0x00, 0x00, 0x00, 0x00, 0x00, 0x00, 0x00, 0x00, 0x00, 0x00, 0x00, 0x00, 0x00, 0x00, 0x00, 
	0x00, 0x00, 0x00, 0x00, 0x00, 0x00, 0x00, 0x00, 0x00, 0x00, 0x00, 0x00, 0x00, 0x00, 0x00, 0x00, 0x00, 0x00, 0x00, 0x00, 
	0x00, 0x00, 0x00, 0x00, 0x00, 0x00, 0x00, 0x00, 0x00, 0x00, 0x00, 0x00, 0x00, 0x00, 0x00, 0x00, 0x00, 0x00, 0x00, 0x00, 
	0x00, 0x00, 0x00, 0x00, 0x00, 0x00, 0x00, 0x00, 0x00, 0x00, 0x00, 0x00, 0x00, 0x00, 0x00, 0x00, 0x00, 0x00, 0x00, 0x00, 
	0x00, 0x00, 0x00, 0x00, 0x00, 0x00, 0x00, 0x00, 0x00, 0x00, 0x00, 0x00, 0x00, 0x00, 0x00, 0x00, 0x00, 0x00, 0x00, 0x00, 
	0x00, 0x00, 0x00, 0x00, 0x00, 0x00, 0x00, 0x00, 0x00, 0x00, 0x00, 0x00, 0x00, 0x00, 0x00, 0x00, 0x00, 0x00, 0x00, 0x00, 
	0x00, 0x00, 0x00, 0x00, 0x00, 0x00, 0x00, 0x00, 0x00, 0x00, 0x00, 0x00, 0x00, 0x00, 0x00, 0x00, 0x00, 0x00, 0x00, 0x00, 
	0x00, 0x00, 0x00, 0x00, 0x00, 0x00, 0x00, 0x00, 0x00, 0x00, 0x00, 0x00, 0x00, 0x00, 0x00, 0x00, 0x00, 0x00, 0x00, 0x00, 
	0x20, 0x00, 0x00, 0x00, 0xba, 0x52, 0xd4, 0x3b, 0x8a, 0x83, 0xc6, 0x3b, 0x7e, 0xfb, 0xec, 0x3b, 0x9f, 0x1e, 0xc0, 0x3b, 
	0x5c, 0x54, 0xc8, 0x3b, 0x0e, 0xec, 0xa7, 0x3b, 0x99, 0xd5, 0xaf, 0x3b, 0x9c, 0xc0, 0xa2, 0x3b, 0xe8, 0x95, 0x0a, 0x3c, 
	0xbe, 0x6b, 0xe8, 0x3b, 0x9a, 0x61, 0xc5, 0x3b, 0x64, 0xad, 0xd6, 0x3b, 0xdf, 0xf3, 0x97, 0x3b, 0xc6, 0x54, 0x9c, 0x3b, 
	0x03, 0x28, 0xb0, 0x3b, 0x3e, 0x2b, 0xf1, 0x3b, 0x33, 0x0b, 0x87, 0x3b, 0x70, 0x81, 0x82, 0x3b, 0x3a, 0xca, 0xb3, 0x3b, 
	0xbf, 0xee, 0xb1, 0x3b, 0xfd, 0xda, 0xbd, 0x3b, 0x9f, 0x3a, 0xa9, 0x3b, 0x89, 0xda, 0xcc, 0x3b, 0xa8, 0x07, 0xa0, 0x3b, 
	0x67, 0x7a, 0x9e, 0x3b, 0x83, 0x82, 0xa8, 0x3b, 0x38, 0x43, 0xb1, 0x3b, 0xe1, 0x8b, 0xb3, 0x3b, 0x50, 0x95, 0xdd, 0x3b, 
	0x7d, 0xbe, 0xbf, 0x3b, 0xe5, 0x5a, 0xb5, 0x3b, 0xab, 0xde, 0x6f, 0x3b, 0x1e, 0x00, 0x00, 0x00, 0x73, 0x65, 0x71, 0x75, 
	0x65, 0x6e, 0x74, 0x69, 0x61, 0x6c, 0x5f, 0x32, 0x36, 0x2f, 0x63, 0x6f, 0x6e, 0x76, 0x32, 0x64, 0x5f, 0x35, 0x38, 0x2f, 
	0x43, 0x6f, 0x6e, 0x76, 0x32, 0x44, 0x00, 0x00, 0x04, 0x00, 0x00, 0x00, 0x20, 0x00, 0x00, 0x00, 0x04, 0x00, 0x00, 0x00, 
	0x01, 0x00, 0x00, 0x00, 0x10, 0x00, 0x00, 0x00, 0xe2, 0xfa, 0xff, 0xff, 0x14, 0x00, 0x00, 0x00, 0xe4, 0x00, 0x00, 0x00, 
	0x06, 0x00, 0x00, 0x00, 0x00, 0x00, 0x00, 0x02, 0xa4, 0x01, 0x00, 0x00, 0xb4, 0xfb, 0xff, 0xff, 0x08, 0x00, 0x00, 0x00, 
	0x88, 0x00, 0x00, 0x00, 0x10, 0x00, 0x00, 0x00, 0x00, 0x00, 0x00, 0x00, 0x00, 0x00, 0x00, 0x00, 0x00, 0x00, 0x00, 0x00, 
	0x00, 0x00, 0x00, 0x00, 0x00, 0x00, 0x00, 0x00, 0x00, 0x00, 0x00, 0x00, 0x00, 0x00, 0x00, 0x00, 0x00, 0x00, 0x00, 0x00, 
	0x00, 0x00, 0x00, 0x00, 0x00, 0x00, 0x00, 0x00, 0x00, 0x00, 0x00, 0x00, 0x00, 0x00, 0x00, 0x00, 0x00, 0x00, 0x00, 0x00, 
	0x00, 0x00, 0x00, 0x00, 0x00, 0x00, 0x00, 0x00, 0x00, 0x00, 0x00, 0x00, 0x00, 0x00, 0x00, 0x00, 0x00, 0x00, 0x00, 0x00, 
	0x00, 0x00, 0x00, 0x00, 0x00, 0x00, 0x00, 0x00, 0x00, 0x00, 0x00, 0x00, 0x00, 0x00, 0x00, 0x00, 0x00, 0x00, 0x00, 0x00, 
	0x00, 0x00, 0x00, 0x00, 0x00, 0x00, 0x00, 0x00, 0x00, 0x00, 0x00, 0x00, 0x00, 0x00, 0x00, 0x00, 0x00, 0x00, 0x00, 0x00, 
	0x00, 0x00, 0x00, 0x00, 0x00, 0x00, 0x00, 0x00, 0x00, 0x00, 0x00, 0x00, 0x00, 0x00, 0x00, 0x00, 0x10, 0x00, 0x00, 0x00, 
	0x48, 0x10, 0x26, 0x39, 0xc6, 0x50, 0xc2, 0x39, 0xbd, 0xe4, 0x4c, 0x39, 0xf2, 0x6c, 0xd8, 0x38, 0x6a, 0xa4, 0x55, 0x39, 
	0x0b, 0x34, 0x09, 0x39, 0xb7, 0xd7, 0x0a, 0x39, 0xa5, 0x95, 0x4b, 0x39, 0xdc, 0x2f, 0x0d, 0x39, 0x16, 0x17, 0x55, 0x39, 
	0xed, 0xf7, 0xe2, 0x38, 0x61, 0x6e, 0x18, 0x39, 0x74, 0x2d, 0x03, 0x39, 0x51, 0x72, 0x40, 0x39, 0x99, 0xaa, 0xfd, 0x38, 
	0x1d, 0x19, 0x10, 0x39, 0xc4, 0x00, 0x00, 0x00, 0x73, 0x65, 0x71, 0x75, 0x65, 0x6e, 0x74, 0x69, 0x61, 0x6c, 0x5f, 0x32, 
	0x36, 0x2f, 0x61, 0x63, 0x74, 0x69, 0x76, 0x61, 0x74, 0x69, 0x6f, 0x6e, 0x5f, 0x35, 0x37, 0x2f, 0x52, 0x65, 0x6c, 0x75, 
	0x3b, 0x73, 0x65, 0x71, 0x75, 0x65, 0x6e, 0x74, 0x69, 0x61, 0x6c, 0x5f, 0x32, 0x36, 0x2f, 0x62, 0x61, 0x74, 0x63, 0x68, 
	0x5f, 0x6e, 0x6f, 0x72, 0x6d, 0x61, 0x6c, 0x69, 0x7a, 0x61, 0x74, 0x69, 0x6f, 0x6e, 0x5f, 0x35, 0x37, 0x2f, 0x46, 0x75, 
	0x73, 0x65, 0x64, 0x42, 0x61, 0x74, 0x63, 0x68, 0x4e, 0x6f, 0x72, 0x6d, 0x56, 0x33, 0x3b, 0x73, 0x65, 0x71, 0x75, 0x65, 
	0x6e, 0x74, 0x69, 0x61, 0x6c, 0x5f, 0x32, 0x36, 0x2f, 0x63, 0x6f, 0x6e, 0x76, 0x32, 0x64, 0x5f, 0x35, 0x37, 0x2f, 0x42, 
	0x69, 0x61, 0x73, 0x41, 0x64, 0x64, 0x2f, 0x52, 0x65, 0x61, 0x64, 0x56, 0x61, 0x72, 0x69, 0x61, 0x62, 0x6c, 0x65, 0x4f, 
	0x70, 0x3b, 0x73, 0x65, 0x71, 0x75, 0x65, 0x6e, 0x74, 0x69, 0x61, 0x6c, 0x5f, 0x32, 0x36, 0x2f, 0x63, 0x6f, 0x6e, 0x76, 
	0x32, 0x64, 0x5f, 0x35, 0x37, 0x2f, 0x42, 0x69, 0x61, 0x73, 0x41, 0x64, 0x64, 0x3b, 0x73, 0x65, 0x71, 0x75, 0x65, 0x6e, 
	0x74, 0x69, 0x61, 0x6c, 0x5f, 0x32, 0x36, 0x2f, 0x63, 0x6f, 0x6e, 0x76, 0x32, 0x64, 0x5f, 0x35, 0x37, 0x2f, 0x43, 0x6f, 
	0x6e, 0x76, 0x32, 0x44, 0x00, 0x00, 0x00, 0x00, 0x01, 0x00, 0x00, 0x00, 0x10, 0x00, 0x00, 0x00, 0xa2, 0xfc, 0xff, 0xff, 
	0x14, 0x00, 0x00, 0x00, 0xe8, 0x00, 0x00, 0x00, 0x05, 0x00, 0x00, 0x00, 0x00, 0x00, 0x00, 0x09, 0x00, 0x01, 0x00, 0x00, 
	0x74, 0xfd, 0xff, 0xff, 0x08, 0x00, 0x00, 0x00, 0x8c, 0x00, 0x00, 0x00, 0x10, 0x00, 0x00, 0x00, 0x00, 0x00, 0x00, 0x00, 
	0x00, 0x00, 0x00, 0x00, 0x00, 0x00, 0x00, 0x00, 0x00, 0x00, 0x00, 0x00, 0x00, 0x00, 0x00, 0x00, 0x00, 0x00, 0x00, 0x00, 
	0x00, 0x00, 0x00, 0x00, 0x00, 0x00, 0x00, 0x00, 0x00, 0x00, 0x00, 0x00, 0x00, 0x00, 0x00, 0x00, 0x00, 0x00, 0x00, 0x00, 
	0x00, 0x00, 0x00, 0x00, 0x00, 0x00, 0x00, 0x00, 0x00, 0x00, 0x00, 0x00, 0x00, 0x00, 0x00, 0x00, 0x00, 0x00, 0x00, 0x00, 
	0x00, 0x00, 0x00, 0x00, 0x00, 0x00, 0x00, 0x00, 0x00, 0x00, 0x00, 0x00, 0x00, 0x00, 0x00, 0x00, 0x00, 0x00, 0x00, 0x00, 
	0x00, 0x00, 0x00, 0x00, 0x00, 0x00, 0x00, 0x00, 0x00, 0x00, 0x00, 0x00, 0x00, 0x00, 0x00, 0x00, 0x00, 0x00, 0x00, 0x00, 
	0x00, 0x00, 0x00, 0x00, 0x00, 0x00, 0x00, 0x00, 0x00, 0x00, 0x00, 0x00, 0x00, 0x00, 0x00, 0x00, 0x00, 0x00, 0x00, 0x00, 
	0x00, 0x00, 0x00, 0x00, 0x00, 0x00, 0x00, 0x00, 0x10, 0x00, 0x00, 0x00, 0x56, 0xde, 0xcc, 0x3b, 0xe1, 0xb8, 0x6f, 0x3c, 
	0xa0, 0xc5, 0xfc, 0x3b, 0xd8, 0x7f, 0x85, 0x3b, 0x54, 0xc8, 0x03, 0x3c, 0xa6, 0x43, 0xa9, 0x3b, 0x63, 0x49, 0xab, 0x3b, 
	0x3b, 0x28, 0xfb, 0x3b, 0xc6, 0x2d, 0xae, 0x3b, 0x27, 0x71, 0x03, 0x3c, 0xad, 0x00, 0x8c, 0x3b, 0xee, 0x0c, 0xbc, 0x3b, 
	0x98, 0xd4, 0xa1, 0x3b, 0x9e, 0x6a, 0xed, 0x3b, 0x8f, 0x78, 0x9c, 0x3b, 0x2c, 0xc5, 0xb1, 0x3b, 0x1e, 0x00, 0x00, 0x00, 
	0x73, 0x65, 0x71, 0x75, 0x65, 0x6e, 0x74, 0x69, 0x61, 0x6c, 0x5f, 0x32, 0x36, 0x2f, 0x63, 0x6f, 0x6e, 0x76, 0x32, 0x64, 
	0x5f, 0x35, 0x37, 0x2f, 0x43, 0x6f, 0x6e, 0x76, 0x32, 0x44, 0x00, 0x00, 0x04, 0x00, 0x00, 0x00, 0x10, 0x00, 0x00, 0x00, 
	0x04, 0x00, 0x00, 0x00, 0x01, 0x00, 0x00, 0x00, 0x08, 0x00, 0x00, 0x00, 0xca, 0xfd, 0xff, 0xff, 0x14, 0x00, 0x00, 0x00, 
	0x88, 0x00, 0x00, 0x00, 0x04, 0x00, 0x00, 0x00, 0x00, 0x00, 0x00, 0x02, 0x48, 0x01, 0x00, 0x00, 0x9c, 0xfe, 0xff, 0xff, 
	0x08, 0x00, 0x00, 0x00, 0x4c, 0x00, 0x00, 0x00, 0x08, 0x00, 0x00, 0x00, 0x00, 0x00, 0x00, 0x00, 0x00, 0x00, 0x00, 0x00, 
	0x00, 0x00, 0x00, 0x00, 0x00, 0x00, 0x00, 0x00, 0x00, 0x00, 0x00, 0x00, 0x00, 0x00, 0x00, 0x00, 0x00, 0x00, 0x00, 0x00, 
	0x00, 0x00, 0x00, 0x00, 0x00, 0x00, 0x00, 0x00, 0x00, 0x00, 0x00, 0x00, 0x00, 0x00, 0x00, 0x00, 0x00, 0x00, 0x00, 0x00, 
	0x00, 0x00, 0x00, 0x00, 0x00, 0x00, 0x00, 0x00, 0x00, 0x00, 0x00, 0x00, 0x00, 0x00, 0x00, 0x00, 0x00, 0x00, 0x00, 0x00, 
	0x08, 0x00, 0x00, 0x00, 0xc2, 0x13, 0xcf, 0x38, 0xa8, 0x36, 0x87, 0x39, 0x19, 0xce, 0x7b, 0x38, 0x44, 0xbd, 0x57, 0x38, 
	0x20, 0xf0, 0x1a, 0x39, 0x0d, 0xf6, 0xec, 0x38, 0x74, 0xaa, 0xf7, 0x38, 0xf9, 0x6f, 0x63, 0x38, 0xc4, 0x00, 0x00, 0x00, 
	0x73, 0x65, 0x71, 0x75, 0x65, 0x6e, 0x74, 0x69, 0x61, 0x6c, 0x5f, 0x32, 0x36, 0x2f, 0x61, 0x63, 0x74, 0x69, 0x76, 0x61, 
	0x74, 0x69, 0x6f, 0x6e, 0x5f, 0x35, 0x36, 0x2f, 0x52, 0x65, 0x6c, 0x75, 0x3b, 0x73, 0x65, 0x71, 0x75, 0x65, 0x6e, 0x74, 
	0x69, 0x61, 0x6c, 0x5f, 0x32, 0x36, 0x2f, 0x62, 0x61, 0x74, 0x63, 0x68, 0x5f, 0x6e, 0x6f, 0x72, 0x6d, 0x61, 0x6c, 0x69, 
	0x7a, 0x61, 0x74, 0x69, 0x6f, 0x6e, 0x5f, 0x35, 0x36, 0x2f, 0x46, 0x75, 0x73, 0x65, 0x64, 0x42, 0x61, 0x74, 0x63, 0x68, 
	0x4e, 0x6f, 0x72, 0x6d, 0x56, 0x33, 0x3b, 0x73, 0x65, 0x71, 0x75, 0x65, 0x6e, 0x74, 0x69, 0x61, 0x6c, 0x5f, 0x32, 0x36, 
	0x2f, 0x63, 0x6f, 0x6e, 0x76, 0x32, 0x64, 0x5f, 0x35, 0x36, 0x2f, 0x42, 0x69, 0x61, 0x73, 0x41, 0x64, 0x64, 0x2f, 0x52, 
	0x65, 0x61, 0x64, 0x56, 0x61, 0x72, 0x69, 0x61, 0x62, 0x6c, 0x65, 0x4f, 0x70, 0x3b, 0x73, 0x65, 0x71, 0x75, 0x65, 0x6e, 
	0x74, 0x69, 0x61, 0x6c, 0x5f, 0x32, 0x36, 0x2f, 0x63, 0x6f, 0x6e, 0x76, 0x32, 0x64, 0x5f, 0x35, 0x36, 0x2f, 0x42, 0x69, 
	0x61, 0x73, 0x41, 0x64, 0x64, 0x3b, 0x73, 0x65, 0x71, 0x75, 0x65, 0x6e, 0x74, 0x69, 0x61, 0x6c, 0x5f, 0x32, 0x36, 0x2f, 
	0x63, 0x6f, 0x6e, 0x76, 0x32, 0x64, 0x5f, 0x35, 0x36, 0x2f, 0x43, 0x6f, 0x6e, 0x76, 0x32, 0x44, 0x00, 0x00, 0x00, 0x00, 
	0x01, 0x00, 0x00, 0x00, 0x08, 0x00, 0x00, 0x00, 0x2e, 0xff, 0xff, 0xff, 0x20, 0x00, 0x00, 0x00, 0x90, 0x00, 0x00, 0x00, 
	0x03, 0x00, 0x00, 0x00, 0x00, 0x00, 0x00, 0x09, 0xa8, 0x00, 0x00, 0x00, 0x0c, 0x00, 0x0c, 0x00, 0x00, 0x00, 0x00, 0x00, 
	0x08, 0x00, 0x04, 0x00, 0x0c, 0x00, 0x00, 0x00, 0x08, 0x00, 0x00, 0x00, 0x48, 0x00, 0x00, 0x00, 0x08, 0x00, 0x00, 0x00, 
	0x00, 0x00, 0x00, 0x00, 0x00, 0x00, 0x00, 0x00, 0x00, 0x00, 0x00, 0x00, 0x00, 0x00, 0x00, 0x00, 0x00, 0x00, 0x00, 0x00, 
	0x00, 0x00, 0x00, 0x00, 0x00, 0x00, 0x00, 0x00, 0x00, 0x00, 0x00, 0x00, 0x00, 0x00, 0x00, 0x00, 0x00, 0x00, 0x00, 0x00, 
	0x00, 0x00, 0x00, 0x00, 0x00, 0x00, 0x00, 0x00, 0x00, 0x00, 0x00, 0x00, 0x00, 0x00, 0x00, 0x00, 0x00, 0x00, 0x00, 0x00, 
	0x00, 0x00, 0x00, 0x00, 0x08, 0x00, 0x00, 0x00, 0x8c, 0x49, 0xdd, 0x36, 0xfe, 0x7d, 0x90, 0x37, 0xd1, 0x8a, 0x86, 0x36, 
	0x39, 0x8b, 0x66, 0x36, 0xf8, 0x91, 0x25, 0x37, 0xd2, 0x38, 0xfd, 0x36, 0xa3, 0x54, 0x04, 0x37, 0x6f, 0x0b, 0x73, 0x36, 
	0x1e, 0x00, 0x00, 0x00, 0x73, 0x65, 0x71, 0x75, 0x65, 0x6e, 0x74, 0x69, 0x61, 0x6c, 0x5f, 0x32, 0x36, 0x2f, 0x63, 0x6f, 
	0x6e, 0x76, 0x32, 0x64, 0x5f, 0x35, 0x36, 0x2f, 0x43, 0x6f, 0x6e, 0x76, 0x32, 0x44, 0x00, 0x00, 0x04, 0x00, 0x00, 0x00, 
	0x08, 0x00, 0x00, 0x00, 0x04, 0x00, 0x00, 0x00, 0x03, 0x00, 0x00, 0x00, 0x01, 0x00, 0x00, 0x00, 0x00, 0x00, 0x0e, 0x00, 
	0x18, 0x00, 0x14, 0x00, 0x13, 0x00, 0x0c, 0x00, 0x08, 0x00, 0x04, 0x00, 0x0e, 0x00, 0x00, 0x00, 0x14, 0x00, 0x00, 0x00, 
	0x14, 0x00, 0x00, 0x00, 0x02, 0x00, 0x00, 0x00, 0x00, 0x00, 0x00, 0x02, 0x50, 0x00, 0x00, 0x00, 0x6c, 0xff, 0xff, 0xff, 
	0x40, 0x00, 0x00, 0x00, 0x73, 0x65, 0x71, 0x75, 0x65, 0x6e, 0x74, 0x69, 0x61, 0x6c, 0x5f, 0x32, 0x36, 0x2f, 0x67, 0x6c, 
	0x6f, 0x62, 0x61, 0x6c, 0x5f, 0x61, 0x76, 0x65, 0x72, 0x61, 0x67, 0x65, 0x5f, 0x70, 0x6f, 0x6f, 0x6c, 0x69, 0x6e, 0x67, 
	0x32, 0x64, 0x5f, 0x31, 0x33, 0x2f, 0x4d, 0x65, 0x61, 0x6e, 0x2f, 0x72, 0x65, 0x64, 0x75, 0x63, 0x74, 0x69, 0x6f, 0x6e, 
	0x5f, 0x69, 0x6e, 0x64, 0x69, 0x63, 0x65, 0x73, 0x00, 0x00, 0x00, 0x00, 0x01, 0x00, 0x00, 0x00, 0x02, 0x00, 0x00, 0x00, 
	0x14, 0x00, 0x18, 0x00, 0x14, 0x00, 0x00, 0x00, 0x10, 0x00, 0x0c, 0x00, 0x08, 0x00, 0x00, 0x00, 0x00, 0x00, 0x04, 0x00, 
	0x14, 0x00, 0x00, 0x00, 0x14, 0x00, 0x00, 0x00, 0x28, 0x00, 0x00, 0x00, 0x28, 0x00, 0x00, 0x00, 0x01, 0x00, 0x00, 0x00, 
	0x48, 0x00, 0x00, 0x00, 0x04, 0x00, 0x00, 0x00, 0xff, 0xff, 0xff, 0xff, 0x80, 0x00, 0x00, 0x00, 0x03, 0x00, 0x00, 0x00, 
	0x01, 0x00, 0x00, 0x00, 0x04, 0x00, 0x04, 0x00, 0x04, 0x00, 0x00, 0x00, 0x21, 0x00, 0x00, 0x00, 0x73, 0x65, 0x72, 0x76, 
	0x69, 0x6e, 0x67, 0x5f, 0x64, 0x65, 0x66, 0x61, 0x75, 0x6c, 0x74, 0x5f, 0x63, 0x6f, 0x6e, 0x76, 0x32, 0x64, 0x5f, 0x35, 
	0x36, 0x5f, 0x69, 0x6e, 0x70, 0x75, 0x74, 0x3a, 0x30, 0x00, 0x00, 0x00, 0x04, 0x00, 0x00, 0x00, 0x01, 0x00, 0x00, 0x00, 
	0x80, 0x00, 0x00, 0x00, 0x03, 0x00, 0x00, 0x00, 0x01, 0x00, 0x00, 0x00, 0x07, 0x00, 0x00, 0x00, 0x94, 0x00, 0x00, 0x00, 
	0x74, 0x00, 0x00, 0x00, 0x54, 0x00, 0x00, 0x00, 0x40, 0x00, 0x00, 0x00, 0x2c, 0x00, 0x00, 0x00, 0x18, 0x00, 0x00, 0x00, 
	0x04, 0x00, 0x00, 0x00, 0xb0, 0xff, 0xff, 0xff, 0x06, 0x00, 0x00, 0x00, 0x02, 0x00, 0x00, 0x00, 0x00, 0x00, 0x00, 0x06, 
	0xc0, 0xff, 0xff, 0xff, 0x19, 0x00, 0x00, 0x00, 0x02, 0x00, 0x00, 0x00, 0x00, 0x00, 0x00, 0x19, 0xd0, 0xff, 0xff, 0xff, 
	0x09, 0x00, 0x00, 0x00, 0x04, 0x00, 0x00, 0x00, 0x00, 0x00, 0x00, 0x09, 0xe0, 0xff, 0xff, 0xff, 0x28, 0x00, 0x00, 0x00, 
	0x02, 0x00, 0x00, 0x00, 0x00, 0x00, 0x00, 0x28, 0xf0, 0xff, 0xff, 0xff, 0x11, 0x00, 0x00, 0x00, 0x02, 0x00, 0x00, 0x00, 
	0x00, 0x00, 0x00, 0x11, 0x0c, 0x00, 0x10, 0x00, 0x0f, 0x00, 0x00, 0x00, 0x08, 0x00, 0x04, 0x00, 0x0c, 0x00, 0x00, 0x00, 
	0x03, 0x00, 0x00, 0x00, 0x03, 0x00, 0x00, 0x00, 0x00, 0x00, 0x00, 0x03, 0x0c, 0x00, 0x0c, 0x00, 0x0b, 0x00, 0x00, 0x00, 
	0x00, 0x00, 0x04, 0x00, 0x0c, 0x00, 0x00, 0x00, 0x72, 0x00, 0x00, 0x00, 0x00, 0x00, 0x00, 0x72};


const uint8_t * GetModelPointer()
{
    return g_Model;
}

size_t GetModelLen()
{
    return sizeof(g_Model);
}

